<unk>
<pad>
<s>
</s>
.
,
I
the
!
is
to
a
it
and
you
that
?
of
not
i
in
but
on
't
have
like
's
are
"
was
for
do
...
be
my
they
he
with
know
The
can
me
think
would
so
It
one
or
if
she
)
am
just
your
good
song
as
don
all
her
You
what
get
will
this
:
at
them
out
by
about
(
go
no
there
@-@
movie
love
because
from
his
u
has
an
really
up
music
him
If
-
'
very
who
its
'm
more
then
find
He
did
too
should
..
want
some
when
people
time
say
A
see
best
*
show
believe
sure
great
That
dont
well
My
No
They
....
only
their
had
name
now
man
got
any
much
could
way
2
songs
watch
look
try
answer
heard
how
other
never
She
even
question
Yes
make
were
still
going
does
;
better
funny
first
old
ever
why
we
said
than
need
also
What
though
movies
right
guy
enjoy
something
&
favorite
/
many
back
been
big
There
day
band
always
're
lot
bad
where
mean
called
girl
THE
website
off
both
ask
seen
yes
pretty
tell
But
two
most
play
search
hope
Do
here
listen
1
use
new
download
In
thing
life
3
im
looking
This
may
thought
'll
down
S@@
person
've
give
anything
fun
little
didn
over
which
same
Your
probably
And
guess
lol
own
remember
made
sorry
able
looks
Good
free
hot
side
friend
saw
www.@@
attractive
cool
A@@
rock
4
work
maybe
things
re@@
someone
might
e@@
help
left
mother
let
before
real
read
come
check
type
used
5
last
take
sing
T@@
B@@
points
IT
'd
Yahoo
such
again
says
stuff
cannot
Why
after
ur
o
P@@
r
else
lyrics
k@@
Please
care
Go
TO
in@@
Oh
IS
into
thats
those
yeah
nice
yet
stupid
friends
long
album
Don
C@@
AND
d@@
agree
t
below
every
year
around
buy
10
put
however
D@@
t@@
b
E@@
fan
years
rap
a@@
while
feel
sounds
e
K@@
baby
How
money
either
un@@
luck
F@@
.....
please
s
So
questions
Well
Is
ya
found
anyone
i@@
hate
us
win
hard
n
YOU
video
watching
won
G@@
site
fat
doesn
idea
live
kind
already
p@@
$
.com
CD
being
wish
Just
When
wait
home
information
different
b@@
D
o@@
another
head
hear
actually
must
y@@
squares
understand
y
everyone
singer
boy
makes
girls
M@@
yahoo
c@@
sound
Who
.@@
m@@
men
since
keep
Not
gay
went
Because
once
nothing
We
quite
oh
wrong
awesome
Are
doing
choose
guys
All
g@@
next
Love
course
cause
talking
Yo
N@@
cant
ing
voice
yourself
_
I@@
gets
Try
film
opinion
times
woman
Day
de@@
hair
TV
liked
end
One
=
s@@
without
L@@
m
ed
R@@
dance
watched
H@@
f@@
these
call
W@@
American
Chris
50
h@@
n@@
place
cute
night
number
three
IN
book
played
O@@
ok
few
school
getting
gonna
k
limewire
red
hell
away
prefer
isn
son
6
li@@
Green
bit
world
trying
television
al@@
w@@
OF
kids
playing
bands
p
pick
enough
wanna
Have
U
similar
done
age
means
To
Me
di@@
w
Luck
everything
sings
etc
list
days
THAT
depends
J@@
@
For
haven
guitar
E
O
young
c
wanted
'@@
da
others
On
er
mom
es
mine
true
l@@
google
B
ate
myself
Now
least
blonde
en@@
goes
asked
ones
together
country
loved
came
far
an@@
Paris
R
shows
black
r@@
d
However
second
episode
phone
radio
#
j@@
wife
wouldn
Yeah
crazy
women
x
start
married
u@@
ma@@
die
Can
seems
kinda
having
family
stop
joke
st@@
mama
v@@
correct
le@@
click
listening
definitely
ly
house
ago
part
S
season
po@@
asking
series
reason
internet
ts
happy
comes
mo@@
cuz
matter
coming
8
Here
Y@@
top
each
sister
z
artist
NOT
mind
anymore
ugly
talk
it@@
be@@
hey
email
children
using
ha@@
ers
actor
no@@
large
thinking
child
ON
hit
beautiful
word
high
......
se@@
hes
eat
group
sexy
me@@
cd
As
C
V@@
Did
yo
Tom
ass
ar@@
tried
told
rest
lots
full
until
ra@@
ten
g
alot
Limewire
Some
lo@@
ro@@
father
pe@@
answers
saying
God
Get
P
T
dead
beat
enjoyed
Maybe
K
computer
la@@
de
amazing
Like
Hey
under
our
especially
brother
sex
7
Of
send
on@@
Rock
version
er@@
punk
th@@
Then
Google
interesting
co@@
link
metal
face
Man
at@@
looked
dude
al
9
pay
okay
words
game
dog
recommend
sad
almost
sh@@
works
popular
king
Sorry
ri@@
certain
knew
HE
3@@
soon
singing
New
ch@@
doubt
ter
th
whole
white
Although
Boy
2@@
point
sa@@
to@@
M
through
picture
or@@
anyway
His
bo@@
line
BUT
ti@@
five
kid
z@@
wa@@
NO
dumb
X
ation
mail
DVD
em
become
between
Wow
kill
se
con@@
Big
online
story
en
Girl
wants
favorites
named
Idol
date
laugh
older
tv
problem
'T
seem
ab@@
choice
LOL
rather
likely
likes
car
pop
title
sometimes
totally
Harry
G
simply
store
female
player
Black
wasn
dunno
character
job
easy
sucks
Y
MY
week
U@@
ca@@
Re@@
famous
Its
At
boys
Or
as@@
write
sign
aware
suggest
ne@@
First
N
making
videos
knows
l
unless
King
yea
4@@
although
Out
f
learn
dad
didnt
ac@@
am@@
Z@@
eyes
less
ted
pre@@
move
fine
started
ine
ha
cu@@
el@@
died
couple
ds
per@@
F
available
order
club
sang
gotta
'S
whatever
do@@
LOVE
green
case
dy
act
fact
bu@@
hop
star
80
visit
Let
um
SO
couldn
boyfriend
possible
Kelly
bet
le
boring
program
worth
Baby
Will
leave
pro@@
ALL
close
la
late
De@@
half
Johnny
hip
After
suck
cares
info
Taylor
today
heart
shes
ME
forget
In@@
shot
Even
L
door
often
ps
ic@@
air
Where
crap
needs
s.com
gone
aren
happen
ive
yahoo.com
husband
Perhaps
chance
purchase
>
ling
Be
DO
Best
Co@@
usually
change
self
ated
vote
girlfriend
pa@@
wonder
sp@@
turn
HAVE
lost
Jack
ill
fall
ke
sick
daughter
instead
break
si@@
THEY
WAS
worry
released
wonderful
hand
classic
helps
ARE
four
es@@
ST@@
dream
ex@@
original
Be@@
weird
20
der
himself
scary
referring
style
12
stand
ve
momma
Star
body
born
Ro@@
difficult
LIKE
Look
Most
miss
longer
ice
Mr.
ding
te
ge@@
John
male
OR
id
ting
activity
took
st
v
Jackson
excellent
happened
RE@@
death
worst
due
Brown
il@@
drink
People
su@@
ous
Check
exactly
Ch@@
pictures
Also
Chuck
water
.......
h
Her
recall
Song
-@@
cartoon
known
8@@
interested
web
na@@
ant
record
IN@@
god
Little
ONE
man@@
per
talented
plays
later
ck
x@@
spell
ho@@
enjoyable
sense
ING
books
unsure
killed
ks
ad@@
sites
bar
ity
emo
sleep
Michael
hi@@
is@@
damn
quality
BE
ger
jokes
CAN
vi@@
working
address
Only
channel
episodes
stay
Boys
mi@@
station
hilarious
seeing
performed
YOUR
pants
suppose
ty
certainly
set
wow
Z
Fall
deal
9@@
sh
15
bought
Li@@
go@@
ton
Movie
Lil
dollars
run
dislike
apologize
hands
mar@@
Park
St@@
ta@@
George
Im
SHE
loves
meet
games
thanks
ating
et
party
LI@@
cat
engine
KNOW
doesnt
Mo@@
mu@@
butt
minutes
drunk
single
les
so@@
With
ent
copy
fake
Music
none
ss
Life
als
Ma@@
Joe
By
magazine
area
IF
scene
along
mad
J
musical
ru@@
view
sort
ally
30
fight
led
kick
Hilton
jo@@
FOR
actress
small
gs
consider
annoying
room
ED
Lo@@
Hope
EN@@
box
walk
Bo@@
ma
Pink
11
forgot
sha@@
Potter
]
months
Mar@@
news
terrible
thank
missed
strange
unable
Never
somewhere
du@@
James
town
lu@@
Paul
ch
ga@@
Ace
qu@@
Family
ba@@
plus
ley
Le@@
sweet
taste
rent
bed
ans
ze
1@@
THIS
afraid
el
To@@
lady
artists
THINK
gu@@
ys
ance
Bob
alive
MTV
~
websites
ic
birthday
100
talent
met
^
cry
David
he@@
Show
clue
american
pi@@
chris
open
wi@@
Girls
Ho@@
Bu@@
gave
for@@
six
te@@
ver@@
fe@@
Norris
GO
Q
ker
ebay
White
ry
ls
dancing
ways
Take
fast
paid
DJ
--@@
rapper
illegal
Con@@
personally
ed@@
during
films
Al@@
supposed
Eminem
perhaps
rich
lie
past
stars
section
moment
light
res
ou@@
AN@@
5@@
WHAT
ly@@
waiting
greatest
genre
+
acting
voted
ey
sed
na
month
thinks
fond
AR@@
twice
names
Cruise
lead
W
ke@@
bring
searching
Mc@@
ES
bass
ful
ev@@
et@@
OUT
above
Bad
color
AT
homosexual
smart
English
sell
Come
An@@
alone
meant
appreciate
huge
cha@@
car@@
kiss
happens
lin
ph@@
Thank
answered
mat@@
share
road
H
hours
fav
recently
ending
chicken
amusing
Queen
fans
add
sung
DON
low
haha
reading
pregnant
WITH
concert
experience
Su@@
dvd
blue
While
........
Time
drugs
alright
18
Hello
ster
inside
Jones
hu@@
da@@
ll
mp@@
dis@@
ER
wear
Po@@
13
Jessica
us@@
fire
gr@@
currently
Bow
receive
tra@@
GET
the@@
titled
familiar
ER@@
takes
Men
bi@@
fly
hold
ded
--
tho
theres
kidding
7@@
waste
ky
singers
brown
food
parents
albums
ses
Newer
tonight
House
attention
contact
heavy
action
Would
running
extremely
absolutely
From
ge
eye
wrote
wh@@
ta
simple
ms
Got
lil
local
track
ment
third
spend
amount
re
tr@@
anime
Un@@
count
Was
ion
Di@@
park
il
bout
except
lucky
ppl
lives
option
par@@
ins
6@@
mb@@
ka
AN
fit
ons
MA@@
min@@
Guy
shop
Billy
Britney
wat
hurt
os
laughing
became
wit
figure
Down
ea@@
ring
page
Everyone
ar
beach
perfect
important
Both
ves
class
heck
dies
cost
mor@@
dirty
idol
ying
ked
havent
Ha@@
Beatles
ah
ni@@
horrible
actors
personal
stuck
Red
everybody
busy
ard
cent
ur@@
America
Since
shit
message
aint
spelled
nose
Tell
[
fell
behind
Up
ver
ics
2006
coz
limewire.com
quit
est@@
drive
har@@
Make
CH@@
mon@@
theme
Too
broke
humorous
cut
humor
kin
ies
bar@@
Th@@
relationship
marry
Back
item
anywhere
ipod
Dr.
YES
fish
24
ne
isnt
over@@
York
short
glad
These
super
myspace
j
ain
ends
tape
ki@@
poor
ad
2nd
space
location
UN@@
dark
ju@@
tu@@
Jolie
gi@@
mis@@
lin@@
IT@@
whether
Search
burn
wins
uses
Two
celebrity
pu@@
Brad
themselves
all@@
Probably
decent
br@@
Ra@@
ws
West
post
weight
human
nu@@
OK
surprised
nope
legs
Dave
Se@@
Does
Bar@@
Okay
loud
silly
fi@@
est
tion
mouth
soundtrack
op@@
summer
Me@@
serious
Angelina
difference
ina
particular
we@@
Young
positive
gives
tomorrow
ck@@
step
kes
near
speak
wont
situation
spelling
40
Lee
completely
straight
¨
include
90
REALLY
obviously
im@@
Lord
paper
Buy
fa@@
April
ball
RO@@
tt@@
RA@@
smell
reality
Sha@@
ner
lyrics.com
HER
caught
listed
size
16
V
BY
sit
Car@@
.........
wood
ite
early
Disney
Give
cheese
che@@
trust
perform
ing@@
gra@@
ia
stick
items
earth
enter
So@@
oo@@
ary
located
Elvis
ie
BEST
sooo
plan
exist
future
ff@@
Hell
Floyd
cover
rocks
characters
luv
ci@@
dating
hearing
UP
worked
knock
HIM
received
Mike
Jay
ig@@
appears
%
morning
idiot
ter@@
feet
fu@@
eating
blood
Daniel
Ju@@
iPod
ats
angry
ol@@
commercial
Nothing
bunch
answering
South
SONG
AS
HOT
Way
file
ff
Mary
Great
special
s.@@
chick
nor
ler
jail
DI@@
example
cra@@
sent
english
nobody
Depp
Christmas
worse
fantastic
av@@
THEM
images
THERE
ong
sub@@
level
Superman
team
admit
ep@@
May
monkey
ready
continue
porn
excited
JUST
company
possibly
Da
model
cks
Woman
World
Those
media
CSI
taking
Last
umm
key
X@@
Hot
creepy
Smith
GOOD
written
bored
hi
grow
WAY
Qu@@
hour
inter@@
ence
fin@@
Du@@
Wars
sky
mp3
wedding
places
rec@@
<
comedy
Kong
taken
WHO
duh
entire
DAY
LE
ITS
mostly
several
Full
match
lame
dat
shut
TS
highly
obvious
finally
performance
yours
HA@@
bottom
easier
gh@@
return
An
Ne@@
tha
appear
ace
front
picked
WILL
Ebay
string
des
meaning
ST
cheap
celebrities
problems
co
bl@@
www.limewire.com
art
DONT
whats
legal
ish
mp
card
High
Ok
Lost
No@@
ren@@
bs
odd
Home
wearing
hits
Ru@@
City
power
1st
Plus
19@@
feeling
tom
col@@
Vegas
Their
evil
Duff
25
Ca@@
featuring
Sa@@
ors
bo
Peter
Kate
window
ss@@
provide
.com.
ana
normal
Bush
gas
Cent
riddle
10@@
Ta@@
trouble
shirt
horse
cast
middle
dd@@
ve@@
state
ir@@
slow
beer
U2
sk@@
SU@@
LA@@
Band
guessing
tune
Man@@
ent@@
sc@@
Spears
hole
outside
living
wondering
Unfortunately
lose
RI@@
dreams
downloading
adult
Simpson
ders
Fa@@
Use
yellow
keeps
ft
desire
cousin
role
decide
save
Kevin
Sp@@
ul@@
Actually
Jennifer
gun
ny
tour
tired
Jo@@
Bill
somebody
imagine
cents
tall
Go@@
ions
attempt
Hi
complete
and@@
cli@@
obsessed
ther
bigger
cre@@
junk
La@@
cow
Van
handsome
driving
ness
LO@@
nine
WOULD
thin
ran@@
Carey
Tupac
throw
tree
unattractive
considered
TH@@
mood
sion
street
ates
pr@@
fla@@
Happy
fo@@
FROM
EVER
wouldnt
pass
LE@@
HO@@
following
AM
IM
00
cr@@
mil@@
pri@@
FA@@
Heart
nie
mes
drama
strong
Mariah
code
sti@@
moon
14
DA@@
sucked
locate
seriously
Linkin
Old
Dead
Listen
Beyonce
TA@@
Batman
lets
onto
ce
AL@@
zy
gre@@
kicked
individual
pink
EL@@
tt
Blue
mention
Right
twenty
LY
Ka@@
Ri@@
1.@@
nasty
main
pping
leg
catch
teeth
fil@@
truth
honestly
related
created
Many
cross
truly
non
button
paris
city
law
given
war@@
KING
ay
Club
brothers
II
telling
BU@@
shouldn
explain
younger
teen
select
ator
cho@@
screen
gg@@
Nirvana
sexual
ten@@
Any
cell
horror
pe
checked
ut
gross
Nick
OMG
chuck
ag@@
neither
Ryan
Metallica
eBay
otherwise
Pe@@
Once
OR@@
ving
obtain
clean
software
Ex@@
plane
chocolate
ex
sters
rappers
Jesus
freak
files
Say
int
blind
hottest
iTunes
huh
Roses
Remember
correctly
ari@@
Led
funniest
practice
Jim
up@@
None
period
Scary
everywhere
ill@@
mm@@
bra@@
touch
Ice
mentioned
turned
ahead
loo@@
Miss
ane
Madonna
ran
Could
upon
expensive
stated
70
intelligent
dress
ens
Visit
ABOUT
anybody
ko@@
helped
ani@@
cal@@
downloads
.COM
entertainment
can@@
Ar@@
chose
bus
listened
cor@@
floor
Pre@@
selection
create
minute
blond
itunes
till
any@@
super@@
bother
ations
member
Eyed
tend
follow
ideas
fairly
ters
giving
CK
total
17
toilet
Romance
under@@
je@@
fool
Ja@@
,@@
mi
ek
Hu@@
SOME
scared
brain
form
182
entertaining
asks
confused
respect
tells
IL@@
potter
shoot
Fire
pm
Cu@@
SH@@
ct
fave
piece
chat
greatly
OO@@
jealous
der@@
land
tic
police
grade
tie
Keith
walking
seasons
Peas
musicians
knowledge
harry
pp@@
TI@@
rude
definately
felt
idk
disagree
Mountain
Daddy
pl@@
including
Pi@@
soul
learned
material
ROCK
Sometimes
personality
ye
roll
types
za
EA@@
0
Ya
inform
mer@@
Wal@@
begin
Ge@@
stations
Panic
Dolls
ya@@
oo
Bruce
options
writing
y.com
ON@@
service
Pretty
addition
hang
extra
Guns
passed
lies
Hill
ino
reminds
cold
against
BECAUSE
bird
Moon
imp@@
ns
2.@@
cla@@
hel@@
row
See
don@@
Nope
bur@@
disgusting
Run
starts
au@@
eight
ess
ber@@
superior
Pa@@
based
net
Brothers
hat
Steve
Fi@@
cap@@
Sweet
ability
piano
ship
kin@@
Hilary
allow
DE@@
lay
forever
anyways
dly
Bon
clothes
college
kelly
stopped
Sh@@
mess
kno
out@@
purchased
vo@@
wing
Har@@
ments
Crazy
realize
DU@@
careful
California
Cor@@
Pitt
solo
Thanks
ion@@
tabs
finger
Mu@@
loser
Billie
wild
ire
gentleman
Nicole
speaking
ack
romantic
21
gar@@
zed
Street
Album
ble
fighting
Je@@
gle
star@@
helpful
everyday
finished
US
sy
honey
attend
Hollywood
3.@@
join
involved
Chemical
Pro@@
sitting
Ask
replied
Phil
bear
price
bri@@
GREAT
shed
goin
.net
win@@
successful
disc
soooo
press
details
drums
BO@@
ang@@
needed
fan@@
plz
Oprah
dogs
Someone
ali@@
0@@
United
individuals
Boo@@
Nelly
AL
lat@@
advice
Kellie
recent
ming
WANT
lea@@
awful
VE
language
downloaded
CE
ser@@
remake
possess
kept
career
az@@
credit
load
quote
overweight
mamma
El@@
Unless
ung
appearance
manner
response
yesterday
ele@@
letter
ages
Mine
pped
ines
naked
Simon
hmm
doctor
PA@@
HA
dollar
round
tes
lo
EX@@
Nu@@
current
hopefully
ure
Jerry
ach@@
ings
MUSIC
Elliot
noticed
Click
CA@@
Prince
sen@@
comics
Lol
60
pain
boo@@
wire
awsome
Sam
Ba@@
ian
Am
mo
Rose
ot
repeat
somewhat
MOVIE
unk
por@@
SE
smoking
account
romance
Without
twins
ear
HIS
cartoons
Clarkson
stage
Texas
walked
Wanna
Cre@@
blow
release
tions
master
tons
ride
Didn
Dream
fre@@
walks
ang
Dirty
Additionally
char@@
ell
sting
clear
heads
ir
present
He@@
history
ale
gon
soap
forward
SA@@
bow
Ha
Br@@
Iron
Grace
Bobby
Though
ning
Live
changed
mus@@
Every
Eddie
wor@@
Dan
approximately
beginning
clubs
Nobody
las
joking
LA
Next
ou
ob@@
sur@@
plot
gotten
soo
ANSWER
Fe@@
ga
dge
Jovi
HAS
BA@@
hump
Gra@@
image
TIME
wn
Metal
MAN
egg
ties
QUESTION
Lisa
ach
biggest
recorded
Ste@@
WHEN
musician
Usher
DC
den@@
ick
south
shoes
sho@@
pic@@
assume
daddy
ric@@
HOW
Tra@@
decision
ically
pun@@
content
acceptable
TY
di
ile
Walk
sun
parts
Pu@@
cur@@
finding
March
hated
que
animal
appealing
Brian
upset
remix
Cool
Jon
Au@@
Either
west
chi@@
signs
rate
SE@@
tickets
ken
herself
elephant
lic@@
WE
Hi@@
ought
ty@@
brilliant
whose
bb@@
SP@@
fr@@
ative
Star@@
Zac
previously
Sk@@
af@@
kers
tw@@
event
ical
Adam
Sunday
nearly
CO@@
dra@@
School
members
IC@@
michael
cos
wind
cable
hero
Christian
Anything
ho
Internet
Watch
Another
board
hide
men@@
inst@@
business
scale
Dance
pic
Per@@
broken
99
Wonder
field
Angel
ERS
More
comp@@
threw
PS
Jason
era
dinner
Lu@@
viewed
clip
comm@@
babies
id@@
Mon@@
Which
phrase
drinking
weeks
million
Friends
DS
Sure
Cha@@
1980
ear@@
fuck
mix
unintelligent
addicted
Do@@
45
tor@@
Night
wall
superman
NO@@
12@@
ghost
SH
TT@@
lunch
seat
oun@@
ved
term
bi
Dude
Name
ell@@
jeans
Kids
son@@
race
app@@
queen
rip
00@@
steal
major
omg
SHOW
yep
lines
concerned
TE
deep
TER
Country
wolf
MO@@
sleeping
Dark
unique
Artist
ba
Martin
fully
insane
Kid
va
SI@@
ja@@
talkin
actual
photo
..........
sum
alternative
IR@@
ints
ka@@
gue
drummer
Ray
vin
lazy
opera
bob
cream
buying
task
cried
Three
LL
Kiss
Charlie
.I
features
stri@@
Want
eventually
WA@@
TED
La
ow
GOT
ce@@
whenever
adore
war
e.com
bye
curious
her@@
mas
ABC
Jam
cake
wake
stores
sounded
ther@@
hav
Four
appropriate
Sean
latest
Thats
Mor@@
Gwen
kie
gh
reach
den
Dog
choices
swear
sta@@
ching
position
frequently
MORE
hy@@
island
ki
earlier
Indian
80s
7th
quiet
PEOPLE
crying
Dont
bor@@
Game
BE@@
Over
numbers
sy@@
CDs
seven
double
Saw
guitarist
sat
lips
ita
compact
Patrick
source
colors
Ben@@
sel@@
audio
decided
Ti@@
bang
lying
Days
began
flo@@
duck
Gu@@
blondes
bro@@
are@@
yup
pizza
wo@@
Tr@@
WOR@@
cheat
Very
offer
Katie
Wait
ore
shi@@
entirely
ining
my@@
verse
ruin
ground
calls
birth
VI@@
wasnt
Yep
Pearl
September
considering
A.@@
stands
Robert
foot
ant@@
jack
mid
Bucky
MP3
tri@@
ton@@
els
Season
sts
Radio
Rap
WHY
wine
Heaven
Punk
issue
ist
SAY
Ciara
hott
deserve
sla@@
animals
hor@@
Eric
hoo@@
PO@@
test
Chicago
bald
neck
wed
1990
clothing
Par@@
Simpsons
cat@@
ack@@
Personally
director
nt
trash
library
sli@@
q@@
suit
sharing
pes
records
label
wer
smoke
bay
entitled
ears
Wor@@
bitch
Inuyasha
Japanese
lived
starring
GOD
Side
ently
pee
exciting
ory
recording
sisters
shower
merely
vy
incredible
Mil@@
viewing
skinny
CON@@
mel@@
Vi@@
Death
feels
ee@@
contest
ME@@
e.@@
beats
ately
GIRL
commercials
hoo
Lohan
Rings
Zeppelin
Keep
pool
Stone
unfortunately
agent
tunes
Rolling
act@@
s-
Haven
manga
Yea
States
NOW
penis
nature
lessons
Mom
ja
NA@@
GA@@
rumor
Call
fingers
ath
unaware
Ni@@
hahaha
PP@@
............
Maiden
chest
ess@@
wan@@
tough
ares
hehe
laughed
whoever
ere
VERY
carry
val@@
obese
johnny
ee
sale
Bro@@
4.@@
Spanish
Know
grew
mistaken
Cash
NE@@
Episode
Jimmy
foolish
Mark
run@@
att@@
table
liking
cou@@
messed
5.@@
john
Las
lover
TH
ET
putting
scare
tru@@
peace
interest
quickly
Stop
ap@@
SON
ven@@
yo@@
actresses
awhile
couldnt
genres
tch
boat
UK
Wa@@
swim
Hip
office
sta
Find
uncertain
driver
DID
dear
Hillary
Kenny
dri@@
GO@@
AC
Everybody
pics
sor@@
eminem
comic
accident
IMDB
sty
fair
gen@@
Wayne
honest
jackson
Al
R.
lyric
killing
rea@@
ID
sometime
performing
S.@@
tro@@
van
sto@@
charge
acks
glass
Brother
jump
kins
lime
Mandisa
cha
fer
ticket
drop
programs
sons
pat@@
bit@@
Eyes
bag
marriage
voices
ste@@
Katherine
Hol@@
yer
shing
sha
EN
avatar
mistake
Whatever
Orlando
sted
final
Stones
tter
ko
dr@@
hun@@
racist
bomb
ro
ol
Wedding
My@@
Snoop
category
Myspace
disney
zz@@
issues
badly
trick
basically
includes
winner
thy
rhythm
network
aired
com@@
minds
letters
hea@@
p.@@
Summer
youre
Friday
Tommy
dre@@
Gr@@
Spice
50@@
shall
sw@@
doo
theyre
Pop
T.I
Put
Sm@@
searched
previous
memory
Before
stories
About
rain
crack
acy
thr@@
magic
whom
4th
sa
DO@@
pull
Something
tty
Williams
ended
French
clo@@
planet
Simple
trip
regret
missing
advise
respond
aw@@
ants
Tony
CA
Damn
cowboy
Sex
Saturday
quick
subject
Dar@@
mer
devil
willing
inv@@
mature
O.@@
magazines
NEW
SEE
players
ford
heaven
ry@@
ink
sexually
Type
DOWN
Lindsay
EST
Che@@
hon@@
July
common
believed
fl@@
bathroom
NY
bell
fear
cer@@
geek
twin
gorgeous
Head
ering
america
results
OH
THEIR
IM@@
sen
23
Te@@
exact
besides
Hard
Jamie
camera
Sarah
Blink
trunk
require
ble@@
brand
Definitely
winning
ping
mate
wise
dying
Stu@@
Rocky
ward
Nor@@
itch
informed
www.azlyrics.com
pt
cy
Gone
lyric@@
research
church
jazz
29
wet
Boyz
every@@
tight
3rd
1.
turns
seek
Cro@@
anna
easily
stole
Rory
notes
remove
elle
included
Shakira
Hmm
han
lovely
mag@@
paint
laid
ster@@
starting
dangerous
shame
spent
shopping
candy
preference
cds
yu@@
bisexual
eng@@
dit@@
USA
further
ei@@
escape
prison
Comedy
DE
For@@
str@@
spanish
negative
thier
GE
xx
favourite
Mel@@
recognize
some@@
compare
cro@@
Other
wears
Halen
q
Roll
sold
hood
theater
MAR@@
hill
jessica
SO@@
hhh
planning
19
Everything
SURE
pie
mixed
zing
puts
stu@@
delete
Min@@
Gi@@
Pussycat
eri@@
ena
med
ped
Play
Halloween
Los
mbs
Nice
Road
ren
uh
Goo
Efron
bearshare
Hoo@@
KS
Gre@@
larger
Titanic
sin@@
ably
Guitar
jobs
favor
MI@@
Moore
sugar
Left
ious
KE
ggy
'M
DA
ICE
Code
ny@@
across
techno
plastic
coo@@
gro@@
ries
cru@@
AB@@
eal
plenty
www.lyrics.com
tho@@
official
rer
spe@@
christian
ep
tly
sat@@
hh
cards
regardless
calling
Lopez
tracks
off@@
posted
watches
Fat
paul
sp
cking
everytime
fun@@
TO@@
freakin
screaming
min
blo@@
shy
illi@@
Depends
lean
OLD
crush
showing
wen
new@@
witch
Age
dates
En@@
boss
Luke
Gotta
Korn
sun@@
Kazaa
sal@@
Always
Ashley
hasn
Amazon
travel
eggs
cri@@
poli@@
Fo@@
keys
Five
normally
d.com
Simply
talks
hotter
award
FIND
yell
Col@@
dar@@
avoid
Ki@@
events
public
imdb.com
therefore
Soul
mary
teacher
skin
incorrect
unfortunate
system
finish
breasts
2005
our@@
ick@@
Sounds
ality
We@@
Jesse
FREE
ture
WHERE
dancer
Tim
explo@@
vers
sis
push
scenes
Fu@@
Funny
Gibson
jumped
particularly
PER@@
beauty
Cole
hundred
Bra@@
Vinci
becoming
play@@
WE@@
picking
topic
google.com
secret
indian
Fred
Ne
regular
ined
Naruto
building
control
Ke@@
ils
Again
lately
confusing
Anyway
hardcore
groups
modern
Dreams
product
jumps
disco
Away
logy
Stefani
breaking
---
African
sin
COM@@
Disco
18@@
Ghost
produced
reference
average
si
ited
Brokeback
physically
bucks
www.imdb.com
balls
disappointed
itty
lar
ris
Super@@
Gilmore
Lucy
dolls
Fox
Friend
enjoys
joe
safe
ser
moving
finale
weekend
reply
leaving
Whoa
Coming
bury
Hicks
D.
Ko@@
EV@@
assist
sequel
dy@@
REAL
NBC
impossible
PLEASE
noise
ENT
holding
Charmed
mobile
MAKE
cted
ches
Bubba
ti
seemed
idiots
script
windows
'mon
ely
Win@@
Rob
expect
Slayer
ene@@
Order
June
Believe
McCartney
ths
Si@@
rest@@
REA@@
mark
meat
math
jus
via
drum
rac@@
aly
ction
ces
hat@@
aged
teenager
JA@@
bra
flying
cash
ado@@
.00
featured
FOR@@
Anyone
din@@
day@@
pin
Louie
Kill
reruns
Hopefully
ummm
dam
spam
Story
alcohol
gal
Gary
Bloom
lookin
arent
CH
Guess
impression
Kanye
allowed
Favorite
500
Slim
breast
Teen
Paula
Turn
Johnson
ner@@
BR@@
Gar@@
Same
show@@
required
STUPID
Dad
Hoopz
Answers
cancelled
Kim
sir
Toby
Bur@@
arm
GIVE
closing
demo
asleep
23@@
kicks
LOOK
ffy
mac@@
Beach
Hop
pra@@
drag
speed
moron
Mother
kinds
BETTER
understood
Rain
Tri@@
studio
CK@@
stayed
george
itz
antly
MC
ANY
flat
ili@@
matters
fli@@
notice
roo@@
ONLY
Bam
pers
lly
Vo@@
ppy
SC@@
gir@@
CI@@
Space
Free
mc@@
chorus
tongue
Power
depend
arms
OTHER
Joey
ct@@
interview
shake
a.com
28
LES
classical
kets
loose
.org
15@@
smells
Chicken
text
Real
JO@@
keeping
lar@@
judge
beyonce
signed
gging
ash
typing
truck
SHOULD
OU@@
hello
enjoying
Phantom
pper
squ@@
surely
fied
Walmart
ca
Things
arrested
belly
basketball
ger@@
Excuse
attracted
Going
Hate
wondered
partner
accurate
sey
duff
Randy
ai@@
Holy
surprise
torrent
fy
P.@@
Greenday
yed
fo
ours
Stay
weed
machine
paying
20@@
fran@@
moves
Holmes
p2p
Aries
Dick
Carrie
Romeo
ron
despite
specific
foo@@
hoping
end@@
cruise
smile
Looks
ara
nerves
twelve
TE@@
apart
mon
val
dom
6th
alien
lers
drug
nicole
viruses
MySpace
NAME
Def
TRY
bones
tab@@
taylor
robot
theaters
scream
gan
sm@@
fourth
Player
Da@@
dig
tre@@
PAR@@
wn@@
moved
lou@@
U.@@
skills
mping
vel@@
tic@@
discovered
tattoo
Her@@
SS@@
depending
J.@@
brad
London
tin
TELL
necessary
Ben
Download
tta
GI@@
hanging
nic@@
Kurt
ater
int@@
Tu@@
pair
lee
host
eps
ban@@
within
San
VH1
THEN
TOO
yr
ham
Mama
random
showed
offense
Gen@@
Mi@@
Ever
Ozzy
natural
acquire
Deal
Super
bun@@
Lo
allows
Hills
dressed
disc@@
Crash
majority
Bl@@
gosh
URL
wat@@
................@@
qui@@
leg@@
thers
useful
Has
ight
collection
lick
sticks
earn
buddy
simpson
instrument
bee
realized
ghts
HEARD
HE@@
ise
ella
relate
Sli@@
kissed
Easy
Cas@@
yrs
wings
sry
FM
Stevie
Bang
Thing
ken@@
Line
runs
Gemini
WWE
Na
...........
ities
2.
NEVER
outta
Pete
tel@@
Break
fic@@
variety
S.
yl@@
access
RU@@
btw
hooked
mber
build
sea@@
ars
oooo@@
nor@@
Momma
request
mouse
tal@@
System
ssed
you@@
males
ffe@@
Leo
cker
mountain
Barry
2004
Wall
GR@@
TAL@@
Apple
22
pulled
spring
t.com
breath
basic
Bal@@
feed
note
Think
faces
attended
newspaper
flowers
Joel
Rich
attempted
ez
faith
butter
messenger
Yankee
guns
appeared
gang
ville
bul@@
kazaa
cook
mum
log@@
dare
Angels
Windows
newer
rat
auto@@
Fran@@
MS
ALSO
War@@
clu@@
han@@
accent
back@@
aches
lesbian
wars
ine@@
Master
Sugar
Emo
hurts
hospital
beatles
ously
wl
FE@@
hips
mb
Ab@@
Sho@@
Ain
gettin
myspace.com
EE@@
plain
costs
boy@@
Ed
Pri@@
tab
bite
bal@@
N.@@
IL
metallica
CAR@@
92
flash
fiction
Law
toy
swe@@
weren
ever@@
remind
professional
amp
accept
sight
Doo
inc@@
tur@@
among
Ive
welcome
MUCH
tal
growing
dro@@
Julia
Wi@@
Scooby
MAN@@
seconds
ark
cher
starred
sn@@
Dogg
pen@@
twist
QU@@
force
tone
donkey
AT@@
feat
promise
ici@@
begins
david
impressed
refer
gum
mmy
Spr@@
inten@@
LAST
Houston
Frank
BAND
pro
catchy
ber
acted
Bunny
attack
Cri@@
good@@
Sawyer
Long
gate
fired
WI@@
St.
crash
Mal@@
clearly
rid
dated
HERE
actions
bowl
Richard
ld
LOT
movi@@
virus
Tucker
EVERY
Cal@@
daily
.i
Urban
27
angel
hollywood
pack
closet
Honestly
hol@@
teach
zzy
STA@@
Candy
Fla@@
PE@@
36
RIGHT
nah
telephone
support
Mad
Godsmack
Blonde
RIC@@
Isn
dumb@@
nights
counts
unusual
jun@@
credits
fashion
result
pimp
Chinese
Manson
anger
BAD
True
print
fame
GH@@
multiple
Dis@@
Miami
fee
Box
draw
AC@@
ra
culture
Wilson
lan@@
Earth
mtv
forgotten
COME
listens
spin
producers
TION
Knock
ridiculous
,000
rumors
Um
Ac@@
Na@@
Captain
checking
rapping
comment
uk
she@@
opening
Lots
tte
flick
GOING
jo
wan
Narnia
Fun
sum@@
graphic
Angeles
wayne
lower
regarding
Money
pole
despise
The@@
P.
KA@@
Australia
un
HELL
Jane
Video
ouse
Blues
gged
pan@@
contains
mic@@
channels
tea
smith
airs
illa
bel@@
AM@@
dances
Pen@@
underneath
feelings
james
engaged
es.com
Thomas
Number
females
innocent
reggae
murder
belive
pocket
Cur@@
ctor
solve
Were
Rihanna
pose
dnt
marijuana
COULD
Scorpio
Off
bles
PRE@@
defin@@
reviews
chan@@
knowing
plu@@
trailer
Sky
pul@@
con
Women
B.@@
Child
pure
ston
cky
Hel@@
eva
911
Doors
Hendrix
jumping
incredibly
Sel@@
adorable
Cr@@
purple
utilize
violent
Sat@@
intended
Kat
rated
gar
che
childhood
Str@@
free@@
PRO@@
clips
down@@
active
van@@
Peppers
AS@@
ging
concerts
ignorant
cup
Marilyn
Bird
kar@@
dragon
significant
wal@@
shown
cont@@
corn
deserves
Elton
Poison
eg@@
mental
Spiderman
FIRST
Duck
cars
dick
realy
apply
tis
Alabama
tube
Read
acts
dol@@
excuse
Pick
All@@
amazon
attempting
plug
360
target
lord
steps
rings
crappy
goodness
tat
pound
brea@@
Chorus
ffs
Alive
Barney
carey
woo@@
Lean
height
loving
Ran@@
Cry
Besides
performer
Idiot
Fly
Shut
raps
mommy
SS
MM@@
Backstreet
lish
loads
ila
R.@@
Joh@@
hook
des@@
BOTH
Lucas
D.@@
800
Pat@@
ous@@
phi@@
writer
3.
slipknot
belong
rock@@
unlimited
ala
LET
depp
april
hehehe
menu
inf@@
immediately
chee@@
prolly
BIG
brains
azlyrics.com
animated
towards
format
Chili
strip
ANYTHING
TRA@@
chemical
cy@@
photos
vs
tastes
dd
hen
Ga@@
www
ges
ate@@
hmmm
dry
effort
C.@@
wers
harder
com
bottle
inappropriate
strongly
phe@@
vocalist
Yoda
follows
Under@@
Neither
NI@@
ak@@
versions
YA
mainly
Ah
69
intoxicated
bill
sia
Char@@
screw
breakfast
higher
Pickler
ILL
inexpensive
bert
tht
Slipknot
Remix
handle
learning
guitars
sions
stripper
Horror
HI@@
jesus
flute
iti@@
PUT
fac@@
attitude
Mr
ggle
kno@@
MEAN
pissed
brought
Mac@@
billy
Dan@@
Faith
appeal
North
beyond
hammer
hung
clever
performs
}
Clark
rule
mel
aa@@
discover
assistance
mirror
Dancing
behavior
process
bby
Jeff
blues
Goodbye
Alex
tive
pac@@
garbage
pounds
Peace
stalker
06
BRO@@
lack
aka
She@@
soft
french
rel
Musical
classics
Jackie
babe
ven
freaking
teenage
mal
Dumb
cats
dem
Python
Wasn
gain
dee
fe
youtube.com
tun@@
ances
river
sending
dic@@
cheaper
M.
Top
terms
Lyrics
jk
Vin
Minor
Channel
Pop@@
Indeed
kn@@
Mind
DOES
Ban@@
Wet
changes
vocals
a.@@
acoustic
tel
ladies
pathetic
lon@@
Bell
ano
Monkey
CHA@@
Gonna
score
los
ada
tra
WH@@
feature
fill
loc@@
download.com
ery
Gang
intelligence
Scott
pleasant
HATE
exc@@
newest
fox
social
Dre
British
faster
THING
Magic
confident
T.V
hilary
Heights
Send
according
Adams
zero
ku@@
b4
license
statement
usual
hee
tor
gie
warm
couch
Mel
Wish
Purple
Plan
gn@@
kies
ref@@
selling
AFTER
bac@@
Hulk
Blige
private
cop
y.@@
ques
Trek
ancy
dang
Stewie
experienced
Cold
cancer
Gangsta
Silent
War
provided
GUY
corner
tattoos
Avril
MANY
1980s
ail@@
afford
uck
eyed
Move
activities
Arnold
PU@@
stones
anie
ati@@
booty
neighbor
chicks
kate
bath
bright
kool
believes
vir@@
Frankie
Need
ght
itting
surgery
Really
edge
England
standing
raise
len@@
guide
ryan
spo@@
equal
Being
wicked
jolie
pleasure
Ad@@
Hawthorne
ocean
D4L
eh
mal@@
Ricky
os@@
fro@@
makeup
ASK
producer
minor
Cuz
BS
rose
returned
mainstream
DVDs
irs
appro@@
Mat@@
Godfather
legally
Allen
tan
slap
Possibly
Kno@@
UR@@
mur@@
log
Hands
ami
amazon.com
bc
hhhh
May@@
placed
Certainly
Monty
Berry
fle@@
stone
BACK
hot@@
fits
meeting
biography
darn
Uncle
berry
sea
lip
colle@@
nin@@
sake
homework
www.google.com
Years
Presley
2003
Mexican
freaky
pig
batman
wierd
Hit
Central
camp
thin@@
purpose
bro
sorta
pts
writers
pin@@
zi@@
imm@@
Devil
kissing
mbo
fixed
youll
oc@@
Pla@@
zer
ress
Therefore
100@@
fra@@
thirty
Blunt
J.
hates
hungry
Jen@@
wide
fix
gangster
temp@@
nick
mexican
sides
def@@
Today
rules
bars
niece
urself
VHS
sports
opinions
Land
greenday
Final
M.@@
ey@@
cheated
fifteen
train
rence
mes@@
waiter
offensive
mix@@
originally
iting
Talk
dle
Network
violence
fart
ruined
PM
teens
mr
Mexico
hiding
EVEN
Homer
electric
rolling
13@@
inquire
YA@@
MOST
1994
boo
bartender
wishes
Comp@@
Lou@@
Alright
turning
Stupid
hotel
Bre@@
ray
chair
t.@@
cus
linkin
Amy
Drive
twisted
del
abs
Cho@@
tv.com
Ten
freaks
effects
Justin
Josh
Ed@@
Roberts
WN
shi
Question
Yellow
sentence
GRA@@
Carter
remembered
bas@@
birds
000
nude
Krist@@
titles
Mrs.
lights
fifty
opportunity
Our
rey
whe@@
woke
scre@@
music.com
Vampire
generation
exercise
pon@@
Party
Kat@@
ids
fifth
On@@
head@@
cinema
gl@@
fri@@
lied
signing
woodchuck
Emma
nickname
ama
phones
US@@
lion
mmmm
Lea@@
ards
KES
spot
poser
Netflix
doors
cop@@
ads
core
stic
ze@@
friday
underwear
Darth
PLA@@
Had
DY
Ave
tz
Zombie
shu@@
study
Mickey
zz
sus@@
bla@@
Media
Tor@@
196@@
Still
virgo
swee@@
Ele@@
Might
64
abt
feminine
Can@@
surprising
korn
yard
sl@@
arri@@
lite
Ber@@
slightly
wrestling
proof
Crue
ature
Songs
sooooo
general
possibility
ben@@
197@@
hear@@
Trust
voting
itch@@
Robin
ene
ai
goo@@
LL@@
INE
corny
tears
apologies
LOO@@
inches
WORLD
chil@@
Wh@@
browse
stranger
Fort
jim
closer
LOW
Howard
rabbit
shar@@
hearts
poop
lic
gift
combination
India
Wea@@
Sin@@
33
emotional
bat
Sick
meal
Eve
sits
bush
yn@@
replies
rating
E.@@
washed
TING
goodbye
VO@@
42
value
letting
exp@@
languages
Tonight
resembles
express
26
hindi
ease
0s
max
resemble
rainbow
yelling
ANT
constantly
san
president
ello
itt@@
vegas
thoughts
stra@@
ben
PSP
Sty@@
Wake
bull
read@@
13th
mall
becuase
folder
tricks
Answer
nelly
Rachel
Marley
spending
Sammy
Honey
elliot
concerning
unpleasant
Cla@@
FI@@
iring
OOOO@@
reggaeton
hottie
Mac
Bearshare
Twins
Armstrong
yan
Cra@@
apple
ww
folks
thanx
influence
Dra@@
CHECK
lists
arrive
split
tely
necessarily
brush
proud
burger
01
sells
spider
berg
bloo@@
somthing
ave
Wolf
VES
canceled
gold
home@@
T.@@
doll
ned
Fre@@
stealing
delicious
drives
dev@@
scam
DAN@@
spy
Olivia
ators
tv@@
milk
oney
sheet
Tree
shoe
billie
Pat
abo@@
Van@@
texas
AND@@
Air
toe
SIN@@
LP
GE@@
christmas
wealthy
hers
tip
oper@@
Far@@
possession
cing
emp@@
fucking
Pie
gur@@
edit
fools
COOL
leo
Seinfeld
Banks
theatre
ells
sharp
fire@@
ddy
port
saved
blog
ners
switch
author
lows
Attempt
Dru@@
thousand
relations
dou@@
ler@@
acker
user
legend
block
frightening
duc@@
killer
Cowboy
paste
Stewart
publicity
ric
boobs
Lin@@
deceased
.............
Tre@@
monster
pir@@
memories
juice
success
prior
WERE
WELL
Richie
pencil
ROCKS
tion@@
Austin
BI@@
preferred
sand
prob
poo@@
elvis
Clo@@
d.@@
Survivor
moments
Por@@
smo@@
directly
plac@@
Santa
Dylan
gos
EAT
Napoleon
ched
bel
angelina
hand@@
dor@@
pur@@
Ala@@
ect
Charlotte
frog
Aerosmith
5th
ska
clown
disco@@
eds
added
clowns
ino@@
happening
wut
cheating
admire
Pr@@
revenge
ban
fruit
brings
Miller
dependent
OFF
Chi@@
Sara
visiting
gen
square
Biggie
Eye
mir@@
YING
hal@@
ula
Ham@@
Imp@@
creative
Hor@@
inted
religion
35
Beautiful
Journey
parties
bugs
WWW.@@
eing
ll@@
stre@@
Pl@@
Motley
iz
CT
HAD
Especially
britney
Lau@@
ji
Exorcist
gla@@
ort@@
desperate
UR
bon@@
yelled
Cena
produce
30@@
Ipod
Operation
Diesel
ket
joy
GS
Lion
forced
Flash
fel@@
laughter
Fantasy
conversation
backwards
Shrek
bb
mini
eve
Kingdom
Wicked
Gla@@
ade
pitt
BB@@
Mad@@
ills
De
yahoo@@
ingo
MA
JU@@
CALLED
Room
Bi@@
bf
Woo@@
W.@@
screamed
haired
Bryan
cookies
Doo@@
leaves
affection
ander
sher
Snow
posters
rin@@
occur
deserved
HEA@@
impressive
cleaning
pus@@
Grey
Irish
Taffy
brunette
Laffy
ware
Hall
Alba
market
demand
somethin
Place
Zo@@
yells
examples
speech
bloody
ead
oldies
Sandler
mul@@
Wind
tics
MON@@
HEY
Or@@
bin
nails
40@@
Anna
codes
walmart
RY
Santana
Sc@@
Fear
Rejects
yd
Cy@@
dudes
W.
Sta@@
aries
hair@@
Cop@@
install
Christina
quest
T.
Million
jesse
gentlemen
calm
belief
Shi@@
1970
rack
pain@@
blah
Groove
arts
false
highest
volume
selves
Choose
links
dish
hilton
teenagers
summ@@
mmm
eleven
relaxing
FUNNY
pod
GG@@
tables
tran@@
removed
Uh
t.v
ori@@
reads
stance
inuyasha
Sto@@
anti
rist
Children
Bon@@
rite
parked
cookie
restaurant
finds
jay
t.
News
Soon
unlike
ged
device
HOPE
mers
sets
MP@@
thu@@
Raven
grass
advertising
lia
Spongebob
fore@@
ket@@
Ball
SNL
Mis@@
Picture
wore
THER
aring
Father
but@@
Buffy
Cause
nuts
200
Haha
dramatic
mini@@
Regardless
Obviously
whore
DEAD
blast
depressed
Lam@@
clarkson
32
night@@
Ver@@
ANY@@
MUST
ratings
pal@@
Shop
baseball
anc@@
cher@@
headed
Mus@@
smarter
falling
horn
peer
GREEN
bodies
eli@@
understanding
Nine
www.myspace.com
sources
aqu@@
Lady
squirrel
weak
improve
keith
som
burst
pp
whi@@
Dem
loss
ented
November
Brooks
.I.@@
typically
bop
Holly
ea
Des@@
duct
Sonny
Eat
Tw@@
gers
ppin
dj
stink
GOO@@
MSN
ope
stinks
od
Notebook
1000
ttes
celebs
38
comments
Wednesday
Nas
Ocean
conc@@
ond
198@@
key@@
KY
san@@
cen@@
additional
dun@@
wanting
aling
ego
YO@@
8th
Kir@@
copies
tiger
Flatts
Wat@@
fortune
cuter
fairy
shops
Lie
BOO@@
NC
pigs
ay@@
snow
Aniston
tapes
opposite
DD@@
ook
lint
mile
ups
madonna
central
spears
OC
bank
background
sni@@
aspect
tryin
thunder
beast
Hmmm
GER
intercourse
Lane
Comics
worthy
Alien
Bri@@
mos
forth
CT@@
comfortable
Beast
anytime
docu@@
Mart
encourage
genius
remo@@
coun@@
ffer
yp@@
jury
india
celeb
redneck
HAPPY
clock
Rocket
Yang
Vince
theirs
budget
retired
org@@
Christopher
47
cc@@
sal
pervert
del@@
dirt
bees
Saving
Wire
youth
inclined
speakers
Ric@@
Samurai
treat
sam
york
ood
haha@@
itted
mariah
circus
Beauty
nes
cliff
stru@@
Hon@@
losing
PI@@
Neil
spoiled
toss
x.com
ams
Torrent
NE
rist@@
speci@@
see@@
kit
apples
lan
RED
ink@@
jan@@
mmer
banned
xy
hurry
END
IV
zo@@
ICK
Sleepy
Hammer
Val@@
aters
Mandy
sil@@
ask.com
Virgin
Out@@
WHITE
insult
ghetto
compatible
aa
dam@@
Priest
Alice
upload
failed
ald
que@@
vocal
Sun
Desperate
extent
FU@@
Housewives
trans@@
cle@@
flower
gy
bridge
Loves
comb@@
goth
THOUGHT
net@@
bubble
Dragon
ELL@@
jam
styles
Buddy
jerk
eats
dec@@
amer@@
vampire
Terry
Puerto
reali@@
sive
vin@@
princess
usher
MU@@
hou@@
Jessie
rubber
talked
li
japanese
fon@@
filled
kim
gor@@
agre@@
definition
Stick
34
www.download.com
Oscar
TT
2002
Craig
drinks
ssive
Prison
animation
rs
45@@
vs.
USE
ITY
provides
bab@@
direc@@
ashley
25@@
dir@@
Satan
Times
broadcast
Elliott
industry
ually
www.m@@
lock
CHRIS
III
Jer@@
lindsay
humans
C.
sle@@
ppet
Ooo@@
Rod
ski
banana
CLU@@
Stern
Evil
wasted
nell
Living
shirts
cting
Travis
MOM
Cap@@
ites
burning
Jen
previews
vari@@
beleive
range
LONG
VE@@
According
Sister
abilities
Academy
mr.
kid@@
Chad
underground
KED
audience
Lover
Sun@@
models
alphabet
seventeen
ticketmaster.com
Mean
nin
capable
joined
clues
Wild
B5
Anthony
intend
Pro
suff@@
Mommy
ool
Pac@@
cops
thoroughly
DOWNLOAD
us.com
novel
Nickelback
Sing
ents
til
Att@@
Bo
Jet
LU@@
95
sponge
moon@@
Cube
Fan@@
HOO@@
blew
OVER
Ron
Gun
ney
bble
Forever
Absolutely
chin
Jimi
----@@
equ@@
Sam@@
adequate
Ph@@
Movies
pisces
instant
Second
kly
relationships
TAKE
lmao
Ramones
cab@@
drawn
YEAH
query
Rol@@
YEARS
sn
ross
carrie
tman
competition
ple
offers
article
rious
Should
thi@@
community
tones
Dear
LY@@
nd
pays
completed
EAR
guard
DIDN
Die
Leave
oil
East
fellow
nick@@
Art
suggestions
coffee
GU@@
tale
connection
Monster
pages
ig
virgin
drove
Com@@
headphones
costume
relax
rell
high@@
that@@
Humps
yy@@
barely
Jojo
input
80@@
pc
sync
accomplish
far@@
rhymes
GAY
11@@
Kra@@
followed
Cha
mike
65
NIGHT
stor@@
Duke
Powter
gee
Magazine
empty
equally
fresh
conver@@
guilty
Won
Coldplay
Bugs
test@@
portrayed
occasionally
baby@@
thick
dun
colored
'ma
remain
Similar
filming
dden
DIE
Hindi
properly
nail
illy
ures
grown
pla@@
BRA@@
government
bullet
som@@
y-
cts
iny
Fri@@
Hea@@
indie
BET
Us
Phil@@
identify
east
Six
homepage
orn
HARD
viol@@
A.
pirates
bump
nation
needle
dream@@
angel@@
sucking
Hood
instru@@
LISTEN
NOTHING
mothers
gasoline
poker
lum
weather
traffic
continues
blame
maker
Dollar
Shawn
chinese
awards
Umm
gemini
studios
prove
amusement
SING
Hanks
selfish
Anime
199@@
Act
Margera
music@@
choosing
SOMETHING
pick@@
coolest
Jake
cared
cer
wrestler
dea@@
naughty
laws
shadow
thru
Freddy
mp3@@
nee@@
ona
shave
az
staying
Spike
iled
Wee@@
Date
coast
Golden
it.@@
VOTE
Shar@@
Hur@@
vel
ni
dope
def
ste
LEA@@
Cinderella
identity
Han@@
hah
panic
Reeves
Kar@@
Shake
dey
now@@
K.
'RE
Ska
plan@@
MAYBE
pity
Looking
Murphy
Mouse
Monroe
officer
Eva
kyo
horoscopes
Mister
mean@@
Tru@@
lake
humps
peas
Whe@@
ELL
Aquarius
dest
enti@@
science
rend
unlikely
uncredited
dan@@
jones
sean
goofy
wards
song@@
Elizabeth
keyboard
Sexy
Crow
Anyways
alike
Start
preview
ero@@
k.@@
shocked
Shot
salsa
accomp@@
solved
wheel
Dynamite
DER
Reese
TON
Ul@@
Dennis
Asian
pray
blu@@
crossed
toast
YS
jam@@
fed
vision
kong
hosts
adults
Lavigne
louie
playlist
stomach
Shor@@
listings
70s
owned
funky
Kyle
millionaire
too@@
Pirates
maid
EP
represents
ale@@
watchin
deals
Bel@@
stin@@
class@@
morpheus
rif@@
sses
CANT
Sal@@
comical
Hold
prince
Axl
Clapton
nano
wud
ices
vo
Hustle
tail
funnier
pawn
MIGHT
happ@@
Jade
pil@@
navigate
shia
focus
Wo@@
peter
PLAY
workers
changing
Aaron
PRETTY
promiscuous
rooster
Amazing
reli@@
HOUSE
Wood
Ter@@
approve
Blo@@
Tam@@
Cartoon
imagination
non@@
Janet
glasses
Fender
gin@@
Diddy
yl
Flav
Bas@@
thead
casting
fi
Scarface
usa
AI
JE@@
daniel
length
epi@@
katie
Water
LITTLE
Virgo
contract
eves
cock
wee@@
Ashlee
---@@
cia
Around
OUS
pas@@
Lev@@
bits
Enjoy
Bit
Spar@@
referred
Cobain
bruce
doin
blink
yeh
Weird
BOY
Ford
poem
tain
MIN@@
SHO@@
Jo
mit
discussing
outcome
Charles
reunion
ima
yah
LIL
ust
Been
orange
kevin
jects
Akon
existed
Knight
origin@@
Seth
Smurf
becomes
nat@@
oned
uring
pornography
moore
Louis
grandmother
outs
schedule
gangsta
divorced
SONGS
wa
chords
acci@@
tin@@
sees
thirteen
ICAL
collect
cin@@
spread
icks
SY@@
lottery
98
ringtone
Degrassi
iron
Am@@
rocked
states
Run@@
replace
PIC@@
kir@@
remains
jelly
TU@@
Yup
Aqua
wil@@
Libra
bowling
deci@@
tap
products
herd
Conan
pa
bus@@
vehicle
real@@
onic
Gump
airing
Bing
girl@@
tips
equals
dering
Pic@@
domin@@
center
Rea@@
cave
Pal@@
75
curse
pse
thay
SOME@@
1,@@
refers
clarinet
2pac
production
Rascal
peoples
whos
Ross
graph
Itunes
strings
Open
ury
Alex@@
Champ@@
dat@@
crowd
airplane
Radcliffe
visited
THOSE
Fol@@
Vader
seventh
ender
China
Shady
ank
awkward
peppers
tar@@
grab
Poop
Ann
Matt
Cam@@
Kaz@@
gan@@
consume
unt
Lose
jennifer
Play@@
fishing
participate
uss
Him
Birthday
wie
punch
NEXT
worlds
DUH
chosen
battle
Li
of@@
reported
Em
effective
saving
Ya@@
screen@@
Keanu
electronic
sely
data
zoo
led@@
250
students
85
Under
Boulevard
lonely
EL
ich
Lime
Leno
ALL@@
Heavy
ush
Jess
disorder
shiny
Finally
Dean
Air@@
stress
OUR
acid
suicide
god@@
predictable
anorexic
craft
physical
ue
Murray
Purchase
bone
BEEN
eable
Chocolate
List
health
confirm
SUCKS
Stephen
remaining
flash@@
10.@@
Monica
chy
wns
120
pointless
sence
dvds
Christ@@
comple@@
hug
PC
300
dence
Vincent
Them
sadly
Deep
california
mped
recomm@@
closed
44
Images
pleased
contain
BEFORE
vol@@
www.youtube.com
falls
jason
Mag@@
101
Cat
Abdul
urban
shipping
Wolverine
Pad@@
exists
Sinatra
concern
buck
chances
KISS
allo@@
kel@@
Garth
wea@@
Rick
Tuesday
Triple
court
beep
DER@@
celebr@@
Id
sab@@
vac@@
WAL@@
papa
treats
illed
Fun@@
Troy
grav@@
aside
Yet
gly
ound
Tal@@
yal
Walker
Hostel
August
reasons
stan@@
You@@
direct
mps
cheats
tro
fred
tah
peri@@
Warner
suc@@
ye@@
swimming
BB
loses
CU@@
Half
thro@@
Logan
Despite
shots
ww@@
Karen
snake
turtle
soooooo
ader
covered
ef
ets
PAN@@
Grease
gig
Ethan
54
riddles
Ill
base
rockers
report
Ellen
ica
box@@
fs
Records
ide@@
Nah
worker
believable
dio@@
SK@@
Mafia
purchasing
nirvana
exceptional
discuss
indi@@
rocker
soup
spit
Holiday
jer@@
www.yahoo.com
Bond
touring
Bran@@
Touch
|
faves
energy
rick
wives
ANS
Relient
CEN@@
1983
Pus@@
Pizza
grandma
hippie
gender
Brenna
ried
simpsons
flow
SCHOOL
adam
ane@@
bies
venture
screwed
Enough
rie
43
G.@@
charlotte
engines
ional
AWESOME
MP
Tur@@
legit
lohan
ition
sport
Face
dedicated
debut
Henry
2001
Drew
LOVED
apparently
E.
Rock@@
Getting
iz@@
brian
photo@@
practicing
Series
31
EEP
stal
taught
spirit
deaf
Tough
EST@@
tically
Aaliyah
Watching
elderly
Sabbath
ast
tting
67
Cru@@
4.
sixth
HH@@
charmed
cul@@
pid
Wil@@
dictionary
ster.com
laughs
Wal
sex@@
Breakfast
spin@@
GIRLS
one@@
determine
Khan
Ying
mani@@
locked
pol@@
scoo@@
Used
ys@@
Pisces
Sab@@
pressure
holes
disliked
method
Gimme
ppo@@
comin
Year
gger
Amazon.com
caused
influ@@
Yo@@
ron@@
Enter
ero
Office
Son
Hits
itself
rape
£
mly
pieces
HEAR
poorly
S.O.@@
invited
aga@@
666
Racer
Save
chain
promo@@
fer@@
posting
Boogie
ED@@
bly
fty
October
Cab@@
bell@@
Buble
Thriller
difficulty
roses
dreaming
backstage
eni@@
Ludacris
Such
laun@@
Bedingfield
Lonely
Ride
gru@@
Close
CAUSE
dave
fantasy
zac
SG
sit@@
Andy
silver
Crashers
download@@
notebook
mag
magical
Boo
talents
Rest
ah@@
Watson
Much
Ser@@
flies
TI
inquiring
.lol
Letterman
ALOT
returns
drown
tries
decade
Les
neat
Mic@@
Gosh
observe
programming
sand@@
daughters
Lan@@
skip
champ@@
ALI@@
skilled
skating
le.com
suspen@@
knocked
Mul@@
mesh
Loved
At@@
question@@
CLA@@
Natasha
FO@@
ONG
emotions
Bear
doc
2007
TYPE
someday
Disturbed
shoulder
Rush
march
ann
goat
Clown
slut
Foo
funeral
sued
WAR@@
occasion
uns
persons
katherine
absolute
TTER
ual
February
launch
81
flu@@
ences
Killers
Together
thus
El
throat
spon@@
MADE
EACH
forty
McGraw
THATS
amed
Forrest
instance
Ali@@
Television
suggestion
HOU@@
Doc
BTW
rank
silent
Sla@@
tupac
sunday
Sad@@
aliens
.com.@@
CE@@
Mam@@
mission
Cody
Robbie
Gates
sear@@
Amanda
Produc@@
witnessed
Limewire.com
Crosby
pre
nam@@
lacking
armed
Ai@@
entered
fu
Fra@@
gri@@
Sailor
Q@@
Ly@@
priest
dig@@
tan@@
football
ABLE
NG
hadn
bastard
Better
responded
sauce
THAN@@
FULL
ooo
ace@@
boot
rerun
H.@@
Dumber
vent@@
mole@@
SEX
Eagles
Whitney
tou@@
WHOLE
Hips
Ring
teen@@
een
grand@@
Jack@@
Heather
aff@@
repeatedly
Bring
Blockbuster
flicks
perfectly
object
Greatest
fanta@@
eaten
haircut
o.@@
yu
Indi@@
boun@@
wagon
Mer@@
introduced
nonsense
psychic
ck.com
rely
ooth
Dam@@
Larry
g.@@
connect
zodiac
mediocre
iling
destination
butts
swing
shark
listing
Doubt
cease
psycho@@
MB@@
Bloo@@
tee
Federline
c.@@
HP
em@@
overall
Fer@@
ttin
becuz
ement
shouldnt
detective
FRIEND
WISH
enjoyment
cakes
Clar@@
hitting
Mars
Eight
mart
Swim
zip
kills
Beverly
Eng@@
LOST
Kagome
oud
yea@@
mans
tedly
impro@@
fret
backside
sooner
afterwards
tit@@
tool
karaoke
naw
lize
German
Grand
direction
Scream
Charlize
sist
Awards
Fur@@
restaurants
gospel
Rid@@
WORK
HUGE
COUNTRY
MENT
Revenge
shape
jerry
complicated
aquarius
inci@@
Carl
ignore
Ty@@
typical
atory
fighter
rob
Sur@@
counting
grammar
Light
spar@@
gang@@
lighter
pussy
independent
ali
pal
Dana
wishing
Sue
Thursday
Bay
ese
sca@@
Osbourne
riding
lane
copied
reme@@
mor
PH@@
ciara
person@@
avid
rat@@
standards
tual
elsewhere
Wing
grey
bling
cheesy
Vol@@
proper
1988
wtf
Force
ARY
garden
prom
mou@@
kki
Twisted
beg
whisky
discs
uni@@
bin@@
voca@@
icas
Joan
kicking
tals
suppor@@
Panther
SICK
gi
Son@@
Earl
Emerald
addicting
Grandpa
Sally
lands
bucky
christ@@
YouTube
somehow
areas
FOO@@
bothered
Jazz
naruto
Keys
september
ppers
goal
tical
copyright
Mighty
settings
Talking
raw
yy
Third
quarter
Blood
LESS
Leppard
Sy@@
specifically
CRE@@
Ve@@
Cher
WATCH
sof@@
rough
harmon@@
farmer
Kind
Barbie
picks
snoop
renting
KC
bike
disk
compli@@
Tina
sitcom
tuning
YO
Hear
hhhhhhhh@@
CC@@
tered
taker
affe@@
gin
nel
whine
Ritchie
Act@@
expected
poo
NEED
Freddie
bio@@
Forget
OP@@
Dur@@
HIGH
disp@@
causes
mmys
KIDS
Leonardo
society
Bit@@
ele
FUL
ideal
Lad@@
Philippines
Sher@@
Washington
Guide
gossip
towel
bie
useless
powerful
hardly
comedians
oner
Secret
arious
activ@@
Germany
YEAR
owner
goog@@
66
roles
Nails
kitchen
Ol@@
s.net
touching
refuse
bloom
cus@@
latin
STAR
gray
Fish
AGE
Ian
fabulous
parking
Fiction
Benny
Part
lig@@
Ven@@
your@@
childish
Theron
NEY
Pac
Lor@@
STAND
Disc
ato@@
Anatomy
messages
L.@@
ided
Hil@@
harm
painful
longest
compared
PG
EY
inging
manson
chime
blade
sales
Scene
Pow@@
gest
posers
applic@@
beloved
scares
pit
skin@@
MONEY
dv@@
relat@@
etly
Foo@@
Zepplin
DD
producing
Through
chea@@
dose
inferior
Americans
ku
Burton
SAME
iness
bad@@
numerous
bbles
uncle
witty
oranges
esh
versus
yn
spice
deli@@
Russell
occu@@
Blue@@
r.
7.@@
arrived
student
Tiger
51
addict
Foxx
vest@@
commit
DING
Florida
60@@
sigh
HAHAHAHA@@
GHT
gurl
bucket
Anakin
esca@@
leader
Flow
Terminator
golden
responses
z.com
FUN@@
Steven
human@@
swa@@
88
beef
heat
who@@
monkeys
SM@@
Broadway
suddenly
Edge
iles
Plat@@
comparison
wood@@
VEN
Gri@@
greedy
vie@@
review
Pepper
suggest@@
BABY
Curtis
repeating
Block
favs
Canadian
FR@@
Train
SSI@@
bread
ole
Gene
Morrison
seed
advance
ille
aron
vent
1982
attract
January
General
hidden
vinyl
genuine
diffrent
halen
unknown
martin
solos
SVU
ultimate
cked
ski@@
exten@@
hype
SOUN@@
Sna@@
pen
bacon
MEN@@
una
hil@@
edited
Pain
holy
rights
Orange
ggles
OOL
Email
ac
brain@@
favor@@
WIN@@
ARI@@
cutie
hav@@
Due
Worst
nite
seeking
Destiny
ux
Toronto
shakira
Gerard
DRI@@
blunt
hose
Cage
countries
Arthur
gf
tony
Low
manager
makin
SAID
exception
remeber
fees
beli@@
AR
Yan@@
guest
Beat
YAHOO
bber@@
ential
roof
youtube
.co.uk
forum
web@@
concept
demonstr@@
astrology
Material
Rabbit
AGAIN
Hunter
urs
gimme
prof@@
Ku@@
pile
Jr
WS
pretend
Cancer
sue
cutest
stops
ham@@
cial
horoscope
Each
syn@@
kanye
YED
painted
coach
KIN
performances
sequels
shrimp
heights
Locke
elly
HOR@@
mour
Mix
flir@@
HI
Meredith
kil@@
Hank
Stri@@
KI@@
lawyer
eller
punks
Yu
Phoenix
Nano
LIFE
Adult
possesses
mates
Jaws
LYRICS
absolu@@
definatly
former
rage
bless
NWA
48
..............
lovers
Guys
status
light@@
like@@
auditions
Turner
thor@@
Ma
Sir
reside
mite
midget
typed
premi@@
askin
powers
octa@@
wling
Apparently
atleast
Tro@@
wwe
aggressive
Ares
classified
sco@@
aol.com
Gay
bre@@
hyster@@
tation
classy
dresses
{
cities
vation
ism
jacket
landed
red@@
raven
Sou@@
july
lun@@
www.bearshare.com
ERRY
Lionel
theory
fur@@
Spider
smaller
ind
compe@@
involves
Feel
dur@@
yyyyyyyy@@
hella
hotmail.com
bes
Im@@
SELF
CHAN@@
cracks
Doesn
ority
Redemption
Brooke
LUV
Tomorrow
invisible
mentally
Who@@
Marie
jack@@
trivia
mole
crossing
heart@@
choo@@
Key
Car
gary
education
lah
messing
Jean
ont
Ob@@
provo@@
BAB@@
Duh
priced
k.com
breed
Hawk
fir@@
Hearts
Opera
acc@@
witness
losers
audition
Cut
Shannon
Parker
Hear@@
abuse
game@@
thx
Sad
TTTT@@
Geisha
western
trance
ATL
pornographic
cows
Chan
lish@@
alls
Ten@@
carrying
limited
ushed
downtown
popcorn
Squarepants
Murder
SUN@@
LD
reci@@
Somebody
Mur@@
taxi
ng
piss
risk
rhyme
dition
rice
anda
bare
stin
fault
Bass
Roy
nudity
hhhhh
overrated
revolu@@
RING
explode
use@@
Dy@@
poly
woo
rockin
New@@
tool@@
iders
pper@@
passion
Must
gods
alo@@
Don@@
hen@@
ssi@@
superb
57
predic@@
gibson
smiling
motion
exper@@
attr@@
tain@@
PARIS
package
families
AD
Spot
toys
Sound
LIE
SORRY
2000
Roseanne
definetly
ouch
Busta
Tool
Loo@@
Yahoo.com
served
nn@@
ether
computers
licks
Gro@@
Mia
FAN
Mamma
Cat@@
grand
miles
mighty
Hand
EBAY
addictive
Scre@@
overly
Lloyd
elf
gues
fying
Pepsi
ozzy
Fr@@
ii@@
appe@@
icy
writes
Than@@
lay@@
www.amazon.com
worried
outfit
ind@@
amp@@
describe
orlando
Gor@@
solution
rental
bey
Ridd@@
immensely
tar
dan
AAAA@@
stalking
AOL
coffin
yers
GEN@@
HOME
pitch@@
fork
blows
Slow
jac@@
EVERYONE
scorpio
Pluto
.but
pho@@
ak
various
Having
abc
stolen
Dr@@
dr
Page
friggin
oul
Ear@@
Foster
irritating
bedroom
classes
figured
Tyler
bt
medic@@
hint
rit@@
Hannah
giant
Taurus
doctors
duo
ENCE
edition
afternoon
rep@@
lisa
stant
atic
CARE
Carmen
HAHA
Kool
noone
Georgia
Melissa
list@@
Rappers
stereo
heels
www.video@@
alley
Center
crew
SW@@
attle
bearshare.com
project
Bart
Sundays
flat@@
Judas
wu@@
Goes
Currently
lions
SEARCH
Maria
srry
Bac@@
angin
grocery
accidentally
hasnt
factory
Awesome
zi
ens@@
DADDY
hippies
Finding
soul@@
WHICH
cleaner
consider@@
pump
Roger
Title
Oklahoma
Cameron
ANG
SIDE
prank
awake
Natalie
Smells
pilot
dial
tooth
dent
stern
Ari@@
div@@
Goofy
sie
disgu@@
ican
xi@@
bean
GLE
GN
slide
tat@@
ssing
verify
DNT
hobby
oops
Bowie
CBS
stream
expert
Bar
china
bum
HOP
Seven
nightmare
G.
FIN@@
ooh
reti@@
ANYONE
WITHOUT
kman
TIMES
NA
OWN
Any@@
pet
sixteen
crime
effe@@
evening
beca@@
um@@
wel@@
pirate
Dou@@
pub@@
LER
loa@@
dia@@
PS@@
wonder@@
Heat
SITE
comedies
relevant
rod
sma@@
ison
jet
Ugly
black@@
msn
graphy
Sea
realistic
tage
Gal@@
blon@@
entry
ians
Cents
tiny
SON@@
ringtones
comparable
steak
amy
Niro
Jam@@
deny
sci@@
joel
Jan@@
walls
cube
RAP
lau@@
Pooh
sse@@
THOUGH
DON@@
WAN@@
fails
Caribbean
mr@@
cure
NU@@
homer
Fools
MOR@@
bir@@
smiles
rows
pearl
Franchize
ense
diet
twi@@
60s
SINGER
PE
inquiry
dad@@
Kentucky
1999
thir@@
profile
ingly
ckin@@
satellite
pronounce
mble
Phoebe
Boston
tends
power@@
zombie
bug
va@@
wal
Japan
implants
satisfactory
alled
hoe
definitly
Frea@@
Kenshin
nan@@
mm
tu
FX
Using
garage
Pulp
transfer
Ever@@
Spirit
neighborhood
north
bau@@
explains
buzz
soooooooo@@
Town
attending
Sith
DUDE
Research
matrix
wel
brokeback
stein
Jump
traveling
STILL
ised
deleted
Black@@
sensitive
Hook
mar
teachers
Pan@@
pon
anga
flip
December
soci@@
fail
liz@@
SL@@
Canada
cious
yang
boyz
there@@
electr@@
refrain
aby
ummmm
discus@@
Nick@@
existence
eld
Fight
gwen
poster
instructions
tti
ctions
sufficient
Silver
assa@@
ANOTHER
Dig@@
ok.
WW@@
amazed
disappointing
46
waves
ety
Ohio
gun@@
holiday
mess@@
Spe@@
Factory
tary
standard
evanescence
succeed
As@@
FF@@
Revolver
ales
BEA@@
ples
STUFF
stared
USED
YER
Rent
ues
nee
Fi
tren@@
Halle
READ
ext@@
Mail
Army
perverted
religious
offended
Carlos
smu@@
Dev@@
wuz
sty@@
mac
VING
nothin
persu@@
ynes
CALL
Wrong
FAVORITE
ELY
digital
funny@@
WRONG
sour@@
mic
whis@@
generally
Mr.@@
1972
INK
england
belongs
FOX
marilyn
Brittany
T.I.
soccer
soda
bon
Nightwish
playin
HU@@
titanic
Grail
mmmmm
UNDER@@
psy@@
TLC
gr8
tina
es.@@
iley
INA
plugged
ht
frea@@
carries
.s
climb
WOUL@@
HER@@
ZZ
stomp
RS
projects
may@@
Apocalypse
Carvey
slept
Surpri@@
SEEN
backstreet
simil@@
liar
repor@@
LIN
week@@
launch.com
Oz
sincere
stunts
TRO@@
chicago
ordinary
Sig@@
FUN
DN
havn
aton
ow@@
oon
bubba
LMAO
Tyra
Shel@@
lest
cifer
CKED
Hurts
skit
dozen
fridge
Colu@@
nicer
Nyng
Nyak
om@@
noti@@
Help
dz
GUESS
Add
smurfs
spongebob
po
mystery
Jose
SUCH
reg@@
bcuz
Electric
KEY
ctive
CAN@@
sux
Screw
Eli@@
ise@@
best@@
Dora
COR@@
ssy
eachother
oooooooo@@
grunge
Throw
dow@@
sian
anticip@@
norris
Dallas
lol@@
HELP
CUZ
Listening
vacation
accep@@
LO
note@@
ud
SUPER
FINE
cau@@
fashioned
guitarists
regularly
heres
biggie
ount
89
lifestyle
rus
jamie
stro@@
containing
consi@@
Station
Shania
Trick
prote@@
dia
stol
swi@@
Step
Carry
Good@@
400
excitement
handed
tations
eee
teller
SED
ddly
ario
disturbing
ef@@
al.com
poison
Del
Doom
frame
Wit
pronounced
concentrate
Massacre
advertisement
Sharon
Based
bill@@
eless
confi@@
fic
Phi@@
advanced
reflect
queer
Chap@@
porch
phil
Welcome
cane
wasting
3000
remote
entering
Antonio
burned
wd
ered
hmmmm
ght@@
Italian
SHA@@
Smallville
Fool
Underwood
Chee@@
enders
Michelle
throwing
anti@@
Point
Alone
sies
occurs
throughout
spir@@
puff
Rather
meaning@@
inch
hur@@
hon
rela@@
fth
fancy
never@@
invite
rom
ker@@
rina
advertise
12th
ninety
intimate
Az@@
Phone
wee
sweat
Every@@
usion
HES
jimmy
invol@@
sword
Oscars
intelle@@
pets
Fru@@
sailor
Coo@@
REMEMBER
emo@@
ALBUM
NED
pls
Heads
yment
emplo@@
THESE
obtained
dis
Zach
St
tially
www.i@@
pran@@
efron
Consider
depressing
ckin
bleed
Av@@
dead@@
flew
elevator
symbol
fuckin
Sydney
appearing
berty
Frankenstein
astrological
Usually
fries
POINTS
instruments
Clay
floyd
Lincoln
webpage
dum
IPod
Emily
terri@@
1998
Wendy
peanut
BREA@@
SN
ax@@
acces@@
Fallout
fron@@
setting
sling
rett
fly@@
vals
directions
compete
bid
AROUND
VCR
interests
fee@@
passing
Jon@@
racing
Agent
destro@@
Rico
lished
quo@@
zie
BODY
Between
oooooooooooooooo@@
sten
recorder
equivalent
R.I.P
Smurfs
spouse
reached
sticker
shorter
appreciated
ign
Than
ple@@
challeng@@
mail@@
responding
Monday
cs
steve
Sunset
Max
mailing
alba
hahahaha
adm@@
MJ
forms
TER@@
CKY
River
Celine
cooler
time@@
Bullet
mmes
8.@@
evi@@
completing
Roman@@
greater
ounds
causing
ckers
horny
selected
ity@@
assuming
DAMN
Stan
detest
pete
spooky
asm
Clint
weigh@@
Legend
Greetings
Duran
1979
ists
horses
cel@@
Bride
FYE
b.com
Teddy
Hong
Target
challenge
dislikes
Somewhere
Sharkey
charts
fag
ital
colour
Demi
dic
heroes
Sci@@
comedian
canc@@
rel@@
cellphone
aco
Cocker
Teenage
MIC@@
band@@
Mississippi
rubbish
stronger
waz
jud@@
simp@@
Bull@@
unfamiliar
Yellowcard
stairs
bottles
wha@@
foreign
fascin@@
Olsen
published
xy@@
opposed
rio
ply
gency
Rider
authentic
register
Kirk
Nightmare
portion
micheal
mma
nar@@
SAW
function
TOO@@
WANNA
rabia
ew
friendship
XM
shou@@
powder
preten@@
side@@
Jeezy
regard
Neverland
encoun@@
posterior
STER
cheer@@
frightened
www.ra@@
Makes
BAR@@
post@@
cassette
LIST@@
shaped
stood
quired
inform@@
Shane
bbie
plat@@
frank
Becky
tuned
10,000
Private
'Don@@
bing
wipe
popularity
Phar@@
aunt
deeply
Instead
dean
homosexu@@
ree
zzle
COMES
ami@@
arian
Singer
Ur@@
eighteen
serve
Dion
directed
ington
fullest
FOUND
Spain
enga@@
cheer
pour
funds
Papa
progre@@
heroin
vomit
stly
dale
swallow
IVE
parks
Sevenfold
Gina
pos@@
Inch
jane
DRA@@
Chong
ables
culate
cies
matic
14th
UGLY
bat@@
oot
tribute
wwww@@
half@@
77@@
committed
ELSE
errors
MX
cowboys
lift
sig@@
formed
cousins
Enemy
Jungle
INS
produces
joh@@
mack
LOOKS
hard@@
stall
trial
Lorelai
aaaaaaaa@@
wooden
Bir@@
raised
SOOOO@@
Soul@@
Miles
weapon
continued
musicals
Girlfriend
Rocks
critici@@
Cul@@
contestants
IMDB.com
ppe@@
oprah
youngest
OM@@
minated
xation
evidence
earth@@
OV@@
melody
friendly
Rosie
terrific
Fin@@
'all
mere
ept
urinate
FLI@@
eddie
stretch
Lois
stran@@
lik@@
built
roughly
Mick
Gold@@
Company
n.com
yay
1993
dator
creator
entertainer
GIN@@
CRA@@
intense
socks
Classic
90s
DAUGH@@
Pumpkin
leads
Sony
formers
pha@@
stop@@
xing
phra@@
metaph@@
kar
1975
coke
grill
nerd
CRAZY
Wouldn
clar@@
Raymond
quarters
cd@@
eric
adise
sally
WIN
repa@@
friend@@
Slater
Killer
partial
expre@@
hit@@
saur
sins
convinc@@
Aren
gaming
HD
interpre@@
Late
tre
gas@@
toward
ura
mbers
Beavis
temporary
boom
IE
oscar
Rogers
what@@
ando
aww
laffy
V.@@
seri@@
DVR
bittorrent
Valentine
Direc@@
Boondocks
Ren
desired
Pol@@
Kit@@
Laguna
EVERYTHING
Hitler
bio
FYI
ITE
desper@@
wallpaper
--------@@
security
It@@
gener@@
Yu@@
Pan
puke
tampon
proceed
gement
profiles
imit@@
predict
circu@@
SSED
ork
Dr
rou@@
Futurama
Celebr@@
bbed
Kri@@
holds
B.
blocker
mun@@
microphone
OO
Alicia
Worth
cracked
Special
IES
barbie
sert
52
WOMAN
passes
chu@@
SIT@@
nap@@
Almost
................................................................@@
Napster
Door
San@@
belt
boxes
Frasier
healthy
hob@@
educational
pe.com
bunny
advent@@
nowhere
Sci
gather
shout
lesbians
Work
fortunate
Mile
shore
DEP@@
banjo
kaz@@
Paige
slowly
Until
hubby
eling
disney@@
EAR@@
oxy@@
sunny
sci
spoil
Collins
settle
ALLY
chase
ult
aid
girly
lamb
VER@@
air@@
touched
ash@@
YOU@@
map
Jenny
phy
pop@@
layed
sume
care@@
McDreamy
lian
Anderson
reverse
yt
eption
CHO@@
Write
weety
1989
SOMEONE
refre@@
inner
eagerly
ram
travel@@
jockey
bull@@
Gil@@
Gabriel
experiencing
them@@
rab@@
STOP
Osama
tley
matches
awe@@
Pick@@
pills
fric@@
hiphop
fat@@
Island
Petty
pres@@
sno@@
sounding
Poor
form@@
cho
honky
aty
Omarion
Bla@@
Drake
percent
share@@
Clinton
loooo@@
Except
resemblance
bage
plans
raining
salad
vig@@
anged
hills
pleasing
NEEDS
dles
recognized
thering
President
tea@@
imag@@
experiences
sincerely
nam
ddin
BELIEVE
Bee
description
Hes
buttocks
supper
engage
pokemon
url
illi
retarded
ALWAYS
Shu@@
itunes.com
Colle@@
shouted
degree
67@@
waited
icking
CLO@@
rolled
P.S
Caucasian
stle
emails
Penny
Stand
shared
49
Emp@@
netflix
deal@@
grateful
Team
MB
uhh
Noah
Unit
TY@@
comming
caster
writ@@
americans
illing
video@@
acked
sol@@
tter@@
lue
chi
ROW
acquainted
behave
cis
sumthin
i.@@
depth
Swing
pussycat
Bollywood
Nat@@
Drink
Easter
Sub@@
broadway
King@@
Whi@@
TRUE
psycho
murdered
italian
diddy
ure@@
artwork
mmmm@@
roller
21@@
emer@@
britt@@
iam
VA@@
Sponge
part@@
PRI@@
extreme
dub
Ferris
SEN@@
mpy
MIND
Veronica
lev@@
alter@@
ycle
breaks
SR@@
Russian
u.@@
kickin
cigarette
robert
Cosby
KIND
characteristics
itt
accur@@
roundhouse
hhhhhh
Giants
70@@
Moses
acquired
Fighting
ENDS
disa@@
PLACE
Fresh
views
Messenger
uncomfortable
Main
neighbors
HAPP@@
mn
ggie
libra
pract@@
Middle
law@@
hus@@
Dirt
hoopz
iller
merchandise
RA
ONS
AMAZING
fold
replaced
grandfather
woods
Matthew
iPods
emotion
compre@@
LEARN
BLACK
labeled
Europe
slapping
judgement
ache
lor@@
ggling
Stre@@
believ@@
Seems
arly
leback
enemy
habit
assure
hum
elds
Wikipedia
hipp@@
appointment
Wan@@
gran@@
dropped
trusted
amo
paranoid
Kidman
OOOO
vet
topics
spare
itu@@
zh@@
Beastie
wished
hooker
apparent
Jacket
vh1
occurred
Cher@@
ound@@
expecting
Missy
Daily
OOOOOOOO@@
captain
saturday
kshake
Sway
entirety
cker@@
spray
update
bia
sexiest
drops
cle
naturally
prostitute
apo@@
godsmack
tball
Latin
gorilla
companies
Marvin
redhead
asi@@
Questions
mento
epers
sole
suprise
spyware
prettier
atient
Parton
sual
Chainsaw
Dare
victim
enty
SEXY
Temp@@
App@@
TOM@@
Lake
les@@
Nicky
Hero
wink
bol@@
Shawshank
riot
ZA@@
anne
tick
bookstore
Diamond
Sera
bler
prepared
Totally
Violent
limit
arrogant
todays
Julie
occa@@
dive
Beckham
goals
Toni
DRU@@
nicest
McPhee
acher
Rouge
logical
Too@@
Control
CHE@@
acey
dissa@@
korean
lined
Comes
TRI@@
AMERICAN
lica
Cult
resist
ITCH
Rhymes
spaces
illian
ises
Wonder@@
DUMB
HIL@@
Soundtrack
Muppets
derline
Naked
services
Imagine
unch
TW@@
golf
Diaz
top@@
Professor
STEA@@
bec@@
rocky
GNR
positively
GAS
aten
obser@@
indu@@
rise
therapy
Nathan
Cooper
Audio
Daughtry
nik
CHIL@@
zee
hating
moo@@
zy@@
breathing
onel
Hermione
MBER
movement
ballroom
operator
9th
05
Bus@@
Men@@
Ner@@
iiii@@
yi
Clash
Den@@
H.
GA
97
nur@@
swings
Calm
stuffed
taffy
CKS
www.music@@
Orchestra
lif@@
VIN
sould
YE
PPER
hurting
Sugar@@
ggs
darkness
dancers
symbo@@
Cliff
uro@@
C7
cheese@@
ann@@
Animation
Ventura
taller
State
Circus
Pantera
,000@@
slightest
HON@@
Bitch
donno
Nicholas
kitty
Origin@@
batt@@
pun
sandwich
dull
revi@@
portra@@
Trinny
Lawrence
FORGET
maiden
Sin
Ev@@
Shes
gins
rant
responsi@@
Clooney
originated
Silence
guessed
asian
Edit
hawk
mellow
programm@@
Mayer
announced
Prayer
Ow@@
voic@@
Volume
Big@@
tains
Shine
tori@@
toes
purse
avi@@
waits
Christ
tn
Saved
Goodness
approach
patrick
adap@@
hulk
Stripper
relation
mx
disturbed
browser
eve@@
hanks
Broken
criteria
ribs
oooh
bricks
Back@@
DES
stry
anced
tricky
addic@@
eared
studied
dumbest
Gi
tles
Rag@@
Bone
elev@@
mysterious
protect
streets
JOKE
Scarlett
Spendin
I.@@
B.I.@@
yahoo.co.uk
valuable
competit@@
YOURSELF
boomerang
Jokes
Pay
Male
YET
Goody
promp@@
ligh@@
balloon
beating
Unlike
yi@@
200@@
DR@@
Bam@@
KNO@@
avril
immy
oooooooo
Beaver
groo@@
differen@@
yin
DANCE
listen@@
Body
HH
holla
Roth
HAHA@@
Fantastic
technically
Moo@@
Molly
Damned
1997
venue
DAYS
urt
.the
Le
cab
mber@@
Solo
worms
Burbank
kett
TWO
weekly
flavor
esome
RENT
Pump
Eddy
SER@@
Twain
Rangers
ships
panties
situations
pert
Perfect
victims
www.letssingit.com
grats
Wings
judges
Village
KA
Downloading
demon
dust
Bin
Goku
burner
cruel
advantage
Basically
plant
oplin
Meet
hypo@@
ellar
annoyed
casino
lik
Ville
1977
fights
Fergie
locke
Princess
mafia
clean@@
expression
Gold
august
Dashboard
zes
Glass
rad
Sma@@
Gol@@
shine
aled
icient
fast@@
Flu@@
tonk
fest
Smoke
perc@@
Blind
Dish
Song@@
providing
smack
College
must@@
sac@@
categories
tam@@
scar
vu
youve
goody
contestant
bear@@
Destination
gel
Jar@@
kus@@
wash
sm
watch@@
Lun@@
PAUL
devo@@
Ang@@
complaining
wrest@@
XX@@
Belle
BA
stupi@@
Ron@@
Fan
www.guitar@@
scorpios
helping
obse@@
AJ
Brady
Korean
Reznor
rial
owns
ch.com
strangers
DOU@@
Heath
pods
bile
Chesney
Wentz
cry@@
SIMP@@
professionals
dumped
enu@@
shoots
♥
Daniels
ern@@
claims
span@@
nearest
tura
medi@@
Vel@@
shortly
Price
Booty
GERS
Harrison
rol
AI@@
ssa
rush
bras
kit@@
gore
Rad@@
freedom
dots
Are@@
root
10th
je
Button
differently
graw
mins
inky
Spend
penter
Boi
9.99
wy
how@@
Lol@@
Suri
hm
'nt
Sly
scars
atten@@
Bren@@
irish
AU@@
southern
violin
Wine
TOP
1987
ala@@
stool
xanga
scroll
sequence
Malo
IRE
heading
ordered
ado
compan@@
stressed
heh
Boss
tick@@
national
fab
Bry@@
raz@@
manufact@@
votes
nipples
mper
ful@@
buff@@
fort
Beep
I.
moms
Ladies
Ends
sident
Warren
entist
REP@@
Sav@@
display
Cand@@
Bennett
Shak@@
chill
cles
hesitate
SEE@@
Underworld
hockey
minded
FALL
ffman
lopez
Wife
Aunt
porno
Lot
IC
ZZ@@
probaly
host@@
39
itor
-D
Radiohead
inebriated
Firstly
union
yel@@
intention
guarantee
rera
hopes
O.C
OOOOOOOOOOOOOOOO@@
Goo@@
Rice
bowwow
ien
scariest
Shoo@@
rement
cough
www.wi@@
pimp@@
Lizzie
HIP
mba
rachel
Goblet
scripted
continu@@
loo
geni@@
Dawn
s.com.
additionally
98@@
gent@@
selections
road@@
comeback
Evanescence
TES
reasonable
LED
complain
manners
goodies
consistently
fastest
anxious
marley
ALE
potato
premiere
puppy
Loc@@
Dani
Ram@@
immature
convic@@
ISE
e-
Godzilla
hai
hs
hr
cals
yz
ment@@
Weezer
reputation
heavi@@
Gun@@
life@@
figures
kenny
SEND
Tran@@
inspi@@
Google.com
MAIL
bitch@@
brit
SA
archi@@
Ralph
WEBSITE
106
SLA@@
responsible
sissy
ith
Sar@@
communic@@
Fez
Heck
Knights
hoom
offered
rents
nies
struck
MI
gon@@
explan@@
cheat@@
code@@
Dolly
ugh
Fav
Detroit
ddle
Xbox
BL@@
aol
cour@@
hoped
prefers
Flying
employed
FINALLY
gene@@
silence
wannabe
POR@@
ced
supply
vic@@
girlfriends
'LL
Evan
salt
hawthorne
Pistols
destiny
conf@@
oring
ricky
dah
error
59
incre@@
benefit
Con
ctively
hu
puerto
achieve
stock
para@@
QUESTIONS
dynamite
increase
failure
mulat@@
ame
IR
Indiana
FIL@@
During
jen@@
ORE
SPE@@
MAT@@
BOR@@
frequ@@
xes
passion@@
'r
hott@@
ase
FREA@@
pressing
desires
enthusia@@
vely
LIVE
upside
outrageous
God@@
introduce
Boun@@
pops
Ba
cuts
Sparxxx
gee@@
Wyatt
festi@@
Navigate
rising
gigaby@@
chan
jon
tus
decides
dit
trace
basket
soft@@
IDIOT
i.e
cole
know.@@
DOG
'Brien
suits
Arms
arabian
martial
mmed
JOHNNY
laying
KIL@@
potential
whoa
asses
CRAP
freestyle
PER
clarify
THER@@
TUR@@
hangs
sarcastic
Lindsey
ove
Fat@@
Simmons
wis@@
Rompe
fiance
fought
frustr@@
Daw@@
WR@@
SNT
goosebumps
LAND
Making
defec@@
e.
66@@
disrespectful
bever@@
zu@@
exit
bags
halloween
ablo
Theres
Fro@@
io
gur
gasolina
shady
ral
xx@@
brands
Apo@@
Launch
exotic
Francisco
HBO
Ful@@
maj@@
rox
unky
thinkin
Police
COURSE
beneath
Moon@@
hall
LS
Fever
pit@@
iner
surgeon
musically
Pokemon
phoenix
borrow
Za@@
Green@@
thou
africa
vhs
par
ve.com
mas@@
legitimate
Hal@@
'a
fate
é
leather
ym
grace
skool
spots
mili@@
county
jump@@
dm@@
snea@@
reco@@
gothic
beginner
tim
Offspring
Lynard
centric
sitcoms
casts
Jewish
Pictures
sou@@
F.
shful
come@@
infant
singles
endure
chwar@@
Bor@@
Chea@@
AA@@
NYC
UU@@
NEWS
Syn@@
HHHH@@
berries
sheep
ATE
Theme
dges
Diego
personalities
love@@
Fly@@
Negative
Verse
mccartney
sane
chili
boots
tooth@@
Falling
PERFECT
buzz@@
shaking
clef
strike
snot
Closer
aming
gian
WB
dot
Dunn
ening
sperm
dea
Ex
'VE
uuuu@@
eigh@@
secrets
earing
erotic
ouldn
nip
TERS
spi@@
.But
exor@@
Bauer
ris@@
www@@
lyrics@@
Cream
battery
Return
explained
dup@@
Chains
entists
easiest
Ant
cocaine
Sai@@
Gris@@
sour
stating
Inter@@
wats
TEN
41
lipstick
igno@@
app
Babies
annoys
Mercury
Uma
ballad
greek
www.3gforfree.com
aaa@@
Wallace
apple.com
probly
ories
short@@
Miranda
lds
empha@@
neigh@@
submit
craigs@@
Elmo
pond
Bun@@
Vin@@
Scorpios
WWF
puzzle
witch@@
nest
dding
Blu@@
billion
sna@@
dump
fm
plea@@
offence
pier@@
Guar@@
loudly
600
Braveheart
exceptions
Kansas
slower
Exc@@
vinci
Donald
connections
gt
Ble@@
brit@@
Shirley
Elm
distribu@@
INDI@@
Sixth
survivors
alized
buried
CITY
BLONDE
Rubber
fal@@
Outkast
2Pac
Ouch
lip@@
tish
carried
wrap
HHHHHHHHHHHHHHHH@@
Jersey
xies
Seriously
COL@@
McBride
Martina
Indie
ioned
tering
presence
chor@@
playstation
Bohe@@
Major
w.@@
leap
laser
cock@@
novela
Fast
droo@@
crawling
Morpheus
TION@@
infinity
pan
Dee
organi@@
traditional
perspective
ricks
Rise
Net
quar@@
Atlanta
offic@@
Films
thang
radio@@
purely
wikipedia
eliminated
athletic
BORN
SB
Ozzfest
ctr@@
junior
Smart
Garden
tennis
logo
After@@
sized
movements
6.@@
LOVES
apprentice
sper
indic@@
nnnn@@
Topic
ooooo
lem
Storm
03
Avenue
Andrew
yest
thrash
Service
BORING
difficulties
carter
eries
soner
eved
oes
repeated
loaded
mono@@
agreed
Soap
fav@@
902@@
desirable
filmed
star.com
ffin
ourney
Epi@@
od@@
Med@@
Delight
Trans@@
MORNING
Dancer
commentary
long@@
Pam
ENING
surmise
Tun@@
Carolina
upcoming
Camp@@
main@@
illegally
sneak
99.@@
portrays
hahahahaha
weapons
Lyn@@
accepted
iler
exceptionally
partake
Colin
mint
thee
happier
hunt
initi@@
evy
fourteen
Meatloaf
stereo@@
dos
le-
rhy@@
SOO
Micheal
reasoning
wack
FL
Sirius
rying
admission
robin
flatts
rascal
Off@@
exi@@
COUPLE
mens
flu
lear@@
gni@@
Ali
Exam@@
Below
observed
rides
tolerate
adding
orns
mute
THE@@
Gill
Stry@@
cooking
Nelson
desp@@
ZZZZ@@
circles
london
Ax@@
Marissa
TURN
dummy
AWAY
venile
cord
bananas
slot
Chester
roun@@
acking
Bliss
underworld
fathers
atin
Ms.
bets
drunken
reminding
MAD
cise
imagin@@
mid@@
hun
Micha@@
jake
descri@@
lifting
knocking
20th
birth@@
Til
ofcourse
soundtracks
ony
funk
ETC
victorious
inqui@@
ITION
comedic
nal
fam@@
pointing
stepped
Sco@@
Ger@@
stunning
MARRI@@
thed
atus
Trace
extras
coon
charges
sixty
Music@@
Thunder
rez
Key@@
chainsaw
enta
Bright
bee@@
chester
kal@@
pple
dio
MED
incorrectly
wave
graduation
announ@@
Born
craw@@
Filth
honesty
scales
JJ
................................@@
bringing
XP
ylin
yip
bt@@
Alan
microwave
uce
Files
irm
horri@@
sag@@
LEAST
atable
pack@@
parade
cine@@
millions
Haley
richard
Correct
dino@@
Colbert
Report
WWWW@@
whiskey
Flava
forge@@
YEA
suffer
indeed
SIL@@
cheeks
pher
scar@@
buttons
jsut
mixes
Haw@@
Monk
Flip
rad@@
READY
hay
lon
tender
Nickelodeon
FIRE
Squad
Cook
flight
elled
Bea@@
choke
assho@@
wealth
smurf
logist
Trish
disgusted
puni@@
Kumar
Perry
Castle
josh
detta
tors
'l
goose
tial
strea@@
Carly
BOYS
favorable
alb@@
regar@@
carefully
amused
Coun@@
anism
mann
detail
mandisa
jan
usb
burgers
Chick
preppy
Stella
Sheryl
critical
guitar.com
bong
procure
Menace
caucasian
fol@@
Film
grab@@
mentary
MIL@@
Isa@@
Ani@@
Barker
resi@@
Winter
Alternatively
Pil@@
tub
'Cause
Summer@@
emotionally
esp
memor@@
requires
quire
WHILE
Nancy
pushing
Spring
outh
tuner
sad@@
Cowell
Laugh@@
beans
ush@@
starters
inju@@
deep@@
austin
ico
pstick
recommended
mask
recieve
bobby
unappealing
TR@@
ros
gene
Bad@@
Tre
significantly
Thought
odds
joey
embarra@@
fa
Valley
Comm@@
magician
scent
tag
Maggie
Depending
lime@@
sar@@
Trey
Allow
ENOUGH
marshmallows
72
races
Double
National
...............
t-
burns
Otherwise
Chan@@
Bye
kups
Planet
snap
kees
machines
ora
thousands
ryptonite
wayz
caps
WAIT
vens
communication
butterfly
ssion
seeds
lemme
tai
sav@@
cheater
Burger
censored
TBS
hearted
tholic
Uni@@
chap@@
jean
maxi@@
shampoo
unit
Ash@@
adds
ssions
vie
cracking
shoul@@
ripped
tights
castle
HAN@@
ising
CNN
Dest@@
Fighters
imitate
Evans
lifetime
sanity
Married
medy
KEN
abbrevi@@
damage
GAME
Lyrics.com
Psycho
seinfeld
Dang
homopho@@
satisfied
Kung
Ted
angels
soooooooooooooooo@@
Dates
Free@@
skeleton
Dopey
LEY
CRI@@
ushing
Mulan
SONS
educated
nerds
ASS
RR@@
sharea@@
zen
subscribe
bea@@
Strange
RE
leck
emule
Dream@@
bitcomet
TA
gratulations
tent
Stimpy
Junkie
stal@@
guts
Casino
boro
disap@@
boards
route
assumed
STAR@@
WOW
Manga
angle
Kings
randy
Buck
Mystic
me.com
minate
Fantasia
dogpile.com
sho
itizen
Rodney
stered
sev@@
mmies
thn@@
Blvd
moni@@
INTERNET
Ninja
ADD@@
multi
income
slayer
ased
Sing@@
thou@@
Underground
bam
ghosts
Brandon
Flo@@
generate
Del@@
hail
marks
Aqu@@
Met@@
Criminal
alicia
tank
assi@@
sunshine
DOESN
claim
OFFICE
chal@@
Jee@@
puppies
GREATEST
lipsy@@
excessive
gons
Brittney
anniversary
Goodman
origin
BUY
Matrix
wht
idle
www.mp3@@
Seasons
shits.com
mat
Hay@@
sers
Ea@@
jar
stupidest
blockbuster
lbs
Eve@@
Track
gold@@
skirt
Kel@@
smallville
Hen@@
comb
weigh
scu@@
slang
P2P
Techn@@
Sor@@
Sunshine
tear
receiving
patient
overwhel@@
Basket
vis
................
noe
Africa
favourites
Sch@@
THINGS
Morning
gear
Franklin
Dro@@
Behind
Gently
BEYONCE
KNOWS
HELL@@
spr@@
VIDEOS
worship
chairs
rocket
Babe
flips
department
bible
GOD@@
Janis
Coast
wax
televi@@
Boat
vine
circumstances
Drama
Inside
tters
seats
trend
defe@@
MC@@
bizarre
simon
determin@@
pancakes
MILY
held
manage
embarrassed
sick@@
vement
monday
sos
Jeannie
Marvel
Fel@@
Hell@@
anis
Der@@
STU@@
Valo
Bun
Rel@@
rus@@
great@@
stie
pitch
ava
Bands
Doug
Hop@@
Lon@@
oray
Compton
forgive
FF
bleach
scratch
BOYZ
forest
sign@@
AMERICA
break@@
BEACH
Tar@@
Whoever
eighties
WIL@@
WON
Book
zeppelin
DED
water@@
Edition
glu@@
MUSIC@@
resemb@@
Later
dumber
enced
spoke
H.I.M
mbies
melt
s.
Jonny
Lynn
nos
technique
stair
untill
mie
ilo@@
William
path
Albert
farm
imbec@@
ver.com
eg
BEEP
creatures
requi@@
pac
pi
crow@@
gli@@
Fle@@
Nic@@
ebay.com
Own
mother@@
Sublime
rocking
1978
embaras@@
centr@@
beautifully
LEFT
Cotton
yor
Job
wot
123
SD
Idk
fellas
07
annoy
98.@@
Wham
dt
Case
presented
Orleans
TOTALLY
dep@@
Hush
Considering
contests
exchange
Dragonball
Circle
RIDD@@
LAUGH
bitchy
mpa@@
diego
establish@@
Lemon
lap
step@@
sky@@
eper
pedal
Animal
Metal@@
PRODU@@
Topher
sandler
WWWW
woul@@
OB@@
dem@@
www.ebay.com
cti@@
Ell@@
separate
Freak
reckon
knowledgeable
restroom
literally
fiddle
Mob
reland
booger
SAD
aniston
----
Grim
deri@@
Malmsteen
OS
Crew
CTION
adonk
phar@@
collector
Ton@@
utilized
Rapper
stics
stinky
quirky
retard
dil@@
deer
bu
Exorcism
spl@@
vi
mony
Thu@@
Rowling
Sound@@
buil@@
Eurotrip
bli@@
eta
pine
Rocko
Speed
unclear
anime.com
grave
grams
versi@@
kat@@
Scoo@@
artificial
disagre@@
indicated
Health
Hair
teh
combined
wr
dul@@
Kid@@
represent
posing
Birth
singingfish.com
repair
THAN
Daisy
iry
translation
pot
Phy@@
fist
sco
HILARIOUS
bourne
idiotic
Wall@@
Action
drawing
Fal@@
Dorothy
nurse
truthful
xm
1984
big@@
animous
Brea@@
scratching
Method
Maid
happiness
slu@@
Theory
customer
personaly
Oregon
raz
hillary
cray@@
howard
obsession
KELLY
any1
ALS
ironic
Photo@@
Whit@@
Roo@@
tech
fai@@
harsh
GER@@
half.com
FREAK
Tis@@
mbia
amir
Hail
apartment
alty
MIKE
AH
YTH@@
duran
Trading
GRE@@
queens
facts
Iraq
initially
walker
pursue
Modern
1960s
ody
ific
Springer
preg@@
lis
infatuated
.you
cases
Kennedys
bullets
ild
irrelevant
tatt@@
roc@@
cap
butt@@
mud
53
nette
staind
BIRTHDAY
Karaoke
slutty
commun@@
downhill
kab@@
graphs
escaped
embarrassing
ggers
dats
Chaka
excessively
Add@@
Victoria
doo@@
gerard
Moment
sunglasses
Darn
STORY
tragedies
TRYING
xbox
undesirable
Adkins
Actor
vy@@
nineties
xwell
ru
lator
Bail@@
rane
gambling
WOOD
barney
Ashanti
Frog
lullaby
Favorites
yland
banks
Dogs
aby@@
lolo@@
pointed
Dri@@
zzie
Psy@@
Lime@@
stroke
Lite
drum@@
WN@@
ime
beacause
stays
OUND
Sandra
gely
DB@@
POTTER
Australian
buis@@
Speak
ring@@
NING
yan@@
mson
EXCEPT
Assa@@
frozen
scripts
BUR@@
yllen@@
VER
translate
intro@@
YE@@
ead@@
m.com
ferret
preferable
semble
debate
four@@
Susie
destroyed
sayin
MISS
Jun@@
Fray
Cable
repeats
Schwar@@
mart.com
Spy
Inform
fea@@
nab@@
FACE
argument
Thro@@
CUTE
mons
gor
scen@@
tician
LOOKING
VIDEO
gey
clark
ridin
cric@@
Lenny
quali@@
Denzel
thic
gala@@
mond
08@@
cud
creating
soo@@
esteem
Res@@
thik
stit@@
describing
perceive
theatres
DOING
SEASON
spoon
ls@@
Sopranos
sch@@
conventional
contain@@
franchise
tton
jol
Record
searches
Found
ohio
Hyde
elli
marching
philippines
unfaithful
ch.@@
FEE@@
Karma
basis
occur@@
roller@@
consideration
dork
Spock
THREE
moody
Ding
Whole
Kareena
net.com
alarm
hideous
Fl@@
ae
CHUCK
....................
row@@
Jagged
STE@@
rested
Horse
printed
revol@@
excla@@
vul@@
contro@@
Gentlemen
stub@@
Led@@
erm
bot
Mercy
taxes
Average
minus
nigga
Dun@@
ousy
comp
sday
SSSSSSSS@@
wrec@@
borne
coaster
shooting
1991
TIC@@
POWER
Twista
Games
associated
conveni@@
chart
damag@@
nightly
puzz@@
subscription
Judy
coldplay
ming@@
EBay
reeves
Mari@@
consci@@
buffy
winners
industries
coconuts
COME@@
Sea@@
weighs
GES
brick
occupy
onk@@
banging
Laura
aloud
angles
ental
Ballad
urine
Greek
Update
schoo@@
dental
rear@@
offend
elaborate
1.99
Dunno
SHES
Brain
thout@@
slin@@
hes@@
Huh
drummers
1964
remade
VEL@@
SENT
jah
Imb@@
referen@@
hush
ascar
gger@@
sto
greats
carri@@
enthusi@@
agger
bara
vice
eleph@@
hopeful
1967
har
Sprocket
tablo@@
L.A.
endings
uts
LAN@@
stare
Pin@@
Dj
Confessional
din
OOO
stur@@
receives
mule
pton
badass
deserving
GH
beside
vege@@
Vanessa
low@@
KNEW
ittsburgh
DMC
wherever
Blaine
Memoirs
fictional
hicks
MOM@@
Cau@@
Waits
audit@@
teddy
testicles
veling
cist
Creed
rain@@
INT
entertain
Sisters
Unfor@@
sciento@@
fah
described
rent@@
posed
dder
SISTER
Kinnik
mayb
Prodigy
resa
NER
TUN@@
comfort
ht@@
vintage
phenomenal
thighs
Stal@@
conserv@@
Taking
gunna
jamin
Zoo
natch
runner
EVERY@@
XD
urch
morrison
Eden
oke
Lead
waddy
rigged
inger
torn
mian
oof
vering
narr@@
Memphis
Interesting
pps
opti@@
shin@@
bully
noo@@
pati@@
refrigerator
xic
Count
sera
gad@@
Betty
yyyy@@
waken
tioning
GB@@
biz
500,000
0.@@
tch@@
Nokia
Jor@@
14@@
Strike
Woody
Explorer
bust
imate
werent
Waiting
morons
mea@@
develop@@
shuffle
Bozo
hendrix
mus
Grammy
Donnie
youn@@
blank
pump@@
dogg
aaa
earned
dre
Mario
Mostly
counted
ACTUALLY
yna
Farrell
victory
aaaa@@
Willis
blog@@
remakes
reminded
ands
headache
anyon
sley
tali@@
1971
nanny
maine
gifts
Catch
crimin@@
MCR
happily
Mule
auction
Fa
ctra
04
2008
Sweat
iest
destruction
SION
camer@@
him@@
belle
sup
tto
ANI@@
Spit
mininova.org
azure@@
sesame
Aishwarya
space@@
u.
onics
smoo@@
spee@@
SPA@@
JoJo
ickens
williams
marrying
mexic@@
alice
whatsoever
prechaun
cam@@
b.@@
ALAL@@
frankie
smil@@
Definately
shell
enter@@
ots
junk.com
boyco@@
hire
ID@@
Squirrel
hei@@
CHOOSE
NIC@@
cas
Manners
FRIENDS
fortun@@
Vaughn
layouts
Bianca
Thunder@@
kat
eye@@
1960
productive
ION
ohh
wig
makers
armstrong
ts@@
penny
dads
bah
Gross
flag
CONC@@
aband@@
collabor@@
hokey
chie
cork
Trent
channel.com
ERT
poetry
packed
skirts
METAL
Atreyu
Jodie
Static
Ooh
Straight
attached
Smiths
lob@@
Frou
prostitutes
Breathe
Toy
dealing
hid
Switch@@
Witherspoon
Gee
proper@@
contr@@
Nashville
intriguing
sony
MEN
cherry
eff@@
Tuck
87@@
THERS
Wynonna
Judds
dough
kish
surprises
bud@@
remy
58
lotta
rers
Bynes
Mi
START
BOB
somone
Winnie
shoulders
Pit@@
tisdale
Cassidy
blanket
Timberlake
912@@
Female
anging
Omar
jee@@
dness
Bowwow
treated
adn
eeee@@
yster
satisfaction
Dill@@
Eazy
Playboy
degrassi
basement
danced
Extreme
discount@@
consul@@
ps@@
pony
onal
parrot
tant
where@@
prizes
ject
caution
constru@@
FO
diving
Stars
Lennon
Gang@@
ctuate
seal
clop
Eastwood
DEFIN@@
joy@@
Longoria
meless
zard
smoked
comer@@
N.
snt
ITH
ades
shock
sibling
vacuum
mented
ninja
sonic
ebo@@
irritates
raped
ania
romeo
TV@@
frustrated
Joy
spiderman
lidays
xter
mpson
Sunrise
9.@@
some1
Loving
Derek
dity
Brand
Sle@@
exclaimed
Courtney
ough
bour@@
Alchemist
gent
shud
SUCK
peanuts
Whenever
Midnight
Hun@@
dwar@@
coolgoose.com
design
POLI@@
med@@
SER
mistakes
perate
by@@
lice@@
Shoe
Lifehouse
patch
gym
ility
Ummm
smokin
smooth
attraction
MOTION
LOW@@
thre@@
MOVE
150
forming
Butter@@
wreck
nit@@
vor@@
pattern
ROSE
Complete
homo
thug
isiana
elmo
booted
tease
ALMOST
Zu@@
tops
LYRIC@@
hmmmmm
dgens
Spon@@
hed
Las@@
cluding
gained
S.COM
feathers
Affirmative
tagonist
Girl@@
Wildfire
mmmmmmmm@@
quit@@
GONE
provider
sly
L.A
Called
dhound
ordin@@
19th
world.com
mbed
Staind
Rurouni
Kr@@
goddamn
licity
fanfic@@
arguing
Vai
xton
survive
cage
GB
gy@@
warez
decor@@
Endless
amela
dc
Made
cloppedy
samples
hears
lean@@
MAKES
posse@@
STR@@
agreement
roy
warri@@
unts
kel
bic@@
amanda
justin
FIVE
adam@@
atch
achieved
nees
Over@@
KER
grease
UT
outstanding
23rd
bound
skill
LOV@@
midnight
ugliest
sion@@
music.@@
hing
Battle
Roy@@
PART
whole@@
sep@@
prices
child@@
right@@
cooked
1996
Cherry
Four@@
Maul
Newman
Jar
bein
bcoz
infe@@
Trump
Coyote
Gorillaz
DREA@@
'on
Jude
JUNE
Madden
addy
'clock
dex
RIP
reve@@
Swe@@
amaz@@
dyed
inet
Animals
Franchise
mew
Southern
Eh
pat
McDonald
re.com
wizard
diamond
Harbor
cler@@
Grind
explore
grillz
Clear@@
sith
Cookie
Lightning
wires
Photograph
dish@@
ylon
www.e@@
dragged
Grateful
Skynyrd
chatting
examine
torrent@@
beneficial
pressed
specially
speaks
abi
ussie
ounts
tatoo
import@@
Lynyrd
napoleon
Fatboy
xi
Youth
oose
LOTS
Grillz
cent@@
remark
Capricorn
terribly
slim
Harold
Cowboys
kak
phantom
Gabri@@
scape
Wizard
sing@@
nings
ily
truely
rican
wy@@
LIME@@
ox
16@@
force@@
homecoming
dock
jerks
condition
86
isyahu
posit@@
309
mph
m.
carribean
snor@@
newgr@@
websit@@
session
ec@@
strikes
crow
tos
Reggaeton
people@@
drool
weezer
straw@@
finder.com
MILLI@@
aly@@
green@@
Dozen
holly
nephe@@
AGO
sarah
grat@@
satis@@
Blondie
Keira
Owen
Stranger
willi@@
Diana
Chappelle
PR@@
reliable
jewish
Beet@@
pots
Donna
Kane
coma
Tom@@
Hetfield
elm
wron@@
Volkswa@@
exam
ACT@@
TURE
RECORD
stefani
aur@@
gol@@
lear
leading
End
boredom
5.5
Omg
vince
chop
Gaye
Beyond
leton
EXACTLY
ade@@
masculine
cool@@
RESS
incident
Susan
Kick
yahoo.com.@@
thm
mp3.com
MOVIES
Breaking
SOS
WO@@
ifi@@
phy@@
ani
555
DIFF@@
obe@@
Tenacious
opened
iser
ranger
HALF
GUYS
flags
Connery
MER@@
Entertainment
damned
gona
endation
with@@
grou@@
Uhh
XI
Jackass
drowned
folk
Sciento@@
Maroon
seven@@
deon
arse
AF@@
Ramm@@
advi@@
gal@@
Ives
yall
mmers
cellu@@
puzzled
vey
ured
hairstyle
fini@@
johnson
fing
Gift
totaly
stic@@
tom@@
Queens
chubby
lina
dary
Megadeth
Howie
laptop
Spo@@
bake
SOOO
suitable
evens
GROU@@
Glitter
dol.com
theyll
Care
tees
static
oooo
ckle
Cali@@
replac@@
exercis@@
p.s
1961
NB
liver
yline
Morri@@
olds
www.ask.com
exclus@@
doe
004
UPN
olivia
EM
ATT@@
carmen
dium
gory
SPICE
Bean
connected
herit@@
gasps
ternat@@
lone
entertained
senior
94
Miya@@
Learning
82
trailers
parent
olas
ari
preorder
impre@@
judging
meets
skeet
Lac@@
Model
fication
becoz
High@@
favo@@
accents
publi@@
associate
County
Helen
precisely
Mermaid
bassist
Ana@@
haled
refle@@
dim
comparing
estab@@
Montana
Against
reaction
digits
steroids
Macy
1955
Sep@@
Ce@@
Lars
Craft
Contact
Aguilera
WER
thermore
zens
opardy
memorable
cigarettes
pting
bridesmaid
Luda
hin@@
Como
dame
appreci@@
meow
Seven@@
oms
Eastside
marily
Witch
santa
But@@
Pos@@
Rasmus
supp@@
diner
distr@@
newspapers
Grab
junkie
poster@@
listener
leaf
giggle
agen@@
broo@@
kle
Laden
Mysterio
nostalgic
hahahahahahahahahaha
homes
Griffin
Cartman
wned
spor@@
Shoes
circle
updated
fabricated
reputable
pride
enged
PY
SCAR@@
0000@@
vid
endless
or.com
ffle
stereotypical
angar@@
Danger@@
yon@@
DRO@@
pedophile
anderson
chewing
vagina
arch
shman
Lar@@
theless
29th
emergency
liet
preferences
extraordinary
exceedingly
Laughing
affair
sequently
depic@@
titude
implore
temper@@
leng@@
improved
consists
surroun@@
SEA@@
requested
Www.@@
Arab@@
enormous
belon@@
present@@
solely
qualities
OTHERS
untru@@
assu@@
consumed
Vol
pertaining
Inu@@
tire
portray
Myspace.com
indicate
particip@@
aspects
answerer
frighten
flatul@@
Wrest@@
Bible
characteri@@
consequences
loathe
lyrics.com.
zation
genitalia
resides
enamored
acquiring
attributes
celebrate
Rican
execu@@
duce
Zodiac
planned
investig@@
represent@@
Reaper
Vitamin
Jensen
stren@@
Hanson
Teletubbies
accounts
coul@@
func@@
SKA
consuming
DV@@
Cafe
Puppets
reak
tooo
Tales
surname
neg@@
Cd
Il@@
nun
CHEA@@
pied
valid
Virginia
constant
effor@@
awaiting
endea@@
concur
financial
wager
assumption
unexpected
reunite
augh@@
arou@@
outdated
cautious
Carrey
Danny
specify
Vito
erly
success@@
teasing
revealed
obje@@
eler
ym@@
frogs
Nan@@
recor@@
highway
boxing
licence
percussion
work@@
techno@@
Hentai
Genesis
Bat
rich@@
Pierce
Glory
panda
ms@@
Lives
stripes
chuckle
SUPPO@@
justice
elson
Cin@@
disappear
BLUE
Marc
confir@@
million@@
polar
Placebo
afterward
zo
covers
eping
Junior
manual
disgust
name@@
exploring
ab
acti@@
rub
rr
ancing
copy@@
pis@@
bosses
Pimp
Ze@@
torious
Lazy
oz
on.@@
ng@@
Arabic
Ti
Sparky
Doll
lawns
heli@@
secretly
Gin
universe
ano@@
sby
ives
reame
py@@
acre
omni@@
mississippi
lighting
2gether
PCD
custom
customi@@
whit@@
Trouble
heroine
asion
Said
ONES
arily
cca
notic@@
divor@@
Fam@@
beau@@
chickens
uniform
boot@@
Wiggles
obnoxious
BEAT
P.O.@@
ini
Heidi
Matthews
Lay
kisses
KAY
relly
P.O.D
Oops
midgets
Tit@@
bility
crackers
denial
Choice
multi@@
Claire
Mission
Mod@@
Silver@@
chamillionaire
weekends
HOTT@@
dings
09
tomato
ball@@
snail
trips
doub@@
tts
diff
Rho@@
Donkey
tempted
aco@@
Astro@@
Blondes
Kelli
Misfits
Slide
tory
Chilli
Sand@@
Andre
raincoat
singular
sexier
differ
safely
modeling
ariously
Nicholson
dor
OZZ@@
Funniest
ej
platinum
Michigan
finger@@
gradu@@
Floor
enth@@
bene@@
Rhythm
Rugrats
bills
entity
labels
Basic
enes
vacilar
Torn
bathtub
Shadow
igh@@
rotten
identified
Reality
Todd
fucker
siblings
Strait
Thundercats
authors
Dakota
prick
roberts
julia
hhhh@@
posuction
Vinnie
virtu@@
Hill@@
ranged
survived
install@@
irrit@@
gles
worthwhile
50s
ggi@@
IDOL
ett
villa@@
Mun@@
Digital
Sheep
dorky
Juice
horns
slet
ison@@
quiz
beam
dressing
Myself
anders
maru
Hudson
Webbie
ece
Lions
dess
ej@@
mbles
Head@@
Hair@@
differ@@
fei@@
ANDS
napster
import
YY@@
graph@@
zilla
Darling
Coach
hez
csi
Brown@@
tac@@
basic@@
author@@
wentz
polka
Satur@@
studying
Satis@@
Scorpions
Willy
Percy
za@@
definit@@
ASKED
flav
modest
did@@
vein
creed
Bare@@
vom@@
Lilo
Groban
way@@
Farm
Bonnie
arnold
LOU@@
Sagittarius
Crystal
mosquito
Rhapsody
feces
Tyrese
aper
supposedly
cali
pickler
cutting
ternal
dialogue
sooooooo
asp@@
offering
dj@@
CUR@@
Schoo@@
mattress
imdb
ing.com
allu@@
WIT
raping
Field
Ig@@
artistic
Stro@@
lu
fruity
Highway
leep
vious
mies
borro@@
maggie
aga.com
pipes
gamble
TEN@@
downloads.com
rol@@
composed
MM
inu@@
PLO@@
boarding
kick@@
Cleveland
anim@@
hue
goo
load@@
om
Cradle
TOU@@
stings
havnt
relative
Yamaha
tenden@@
SHI@@
bench
lywood
actly
Pitch
pokey
hence
commer@@
Davis
Incredibles
returning
Que@@
HEAD
dessert
buns
Hunger
crocodile
wk
Singers
LAME
chick@@
fluffy
probally
bic
Reno
nese
JESSIC@@
spectacular
stling
australia
bels
Public
nay
kon
pollution
spirits
tee@@
ppard
Illinois
merang
aken@@
NONE
Rules
impress
mari@@
cross@@
Cad@@
Wel@@
satanic
quotes
eeeeeeee@@
geeks
ouses
charlie
knife
TAYLOR
crashed
remar@@
jeff
samurai
corporated
wonders
doom
Obi
1-
lisp
winds
Meg
absurd
christopher
abit
PA
novels
WATCH@@
lim@@
conce@@
Armageddon
Yor@@
Tho@@
Reject
Change
MON
Wentworth
Angus
emailed
electricity
Wants
YANKEE
gga
laback
c.com
PLU@@
Gyp@@
gg
vt
satan
Rn@@
gam@@
itone
thews
VY
6,@@
chir@@
outfits
cells
be.com
Note
Sul@@
roman@@
TRL
Diamonds
TTE
spa@@
v.@@
www.indi@@
MMY
LEO
serial
78
puppets
expe@@
kon@@
MAY
SMA@@
lit
GAL
Minu@@
public@@
.it
MINE
aar@@
res@@
CELE@@
judice
anks
APP@@
stantly
crooked
Crowe
Fall@@
serves
grant
LOTR
Someday
whores
insulting
100,000
BOOK
lux
shakes
survivor
ial
blub@@
ghtly
bias
native
casinos
dang@@
kee
livin
die.com
TOM
Superstar
BJ
complex
ts.com
PRESS
crown
GEOR@@
OUN@@
BEAUTI@@
Smoking
switch@@
sent@@
laguna
Wu@@
ortal
Beckinsale
alie
sorts
kness
omi
adress
rooting
wed@@
mewi@@
crete
thnx
facial
sic
hahahaha@@
whatcha
cubes
mocr@@
panther
Nichole
reception
CM@@
nn
STEM
WHATEVER
NOR@@
irritated
rrr
owe
u2
fudge
Eu@@
kra@@
nett
oni
Ram
onna
pow@@
sawyer
ashlee
lates
stream@@
vh1.com
CAME
gallery
hrs
Hoobastank
GING
underwood
done@@
BIL@@
kidnapped
Garcia
teous
LUCKY
ussy
hosted
Tale
Dixie
ido@@
ute
Merry
asel@@
--I
Kinda
whoo@@
sucker
Daugh@@
Righ@@
tox
Sen@@
PICK
issor@@
oor
ik
McGuire
Class@@
tsie
african
spark@@
thel
Pressure
THROUGH
TOLD
YAH
measured
carpet
guil@@
TIONS
Kap@@
Sugarland
Voices
stabbed
clicking
primary
ANGE@@
mmas
elers
technical
NIE
Bul@@
nickelback
corn@@
EMINEM
Kit
Turns
amuse
HIMSELF
thur@@
rash
Court
prostitution
STE
follo@@
gots
they@@
poin@@
93
PROBAB@@
zn@@
Spor@@
Angel@@
yle
ip@@
turn@@
L.
downloadable
heed
mars
DIS@@
oi
dar
DIRTY
ggin
AIR
bber
addicts
gently
mee
Thurman
oul@@
orig@@
blue@@
www.go@@
Mou@@
Dat@@
abase
Oak
dr.
separated
offs
512
groove
fas@@
sniff
dow
delivery
calendar
arab@@
myth
argu@@
F.@@
nom
horrid
Montgomery
quake
smar@@
houses
thingy
DaVinci
dryer
denies
rare
Machine
Odd
ENED
ourage
cko
album@@
creep@@
numb
atra
Advent@@
releases
foy
alon@@
SCA@@
Affleck
boondocks
Ark
Hogan
sleepy
addresses
suke
Color
snee@@
tamil
Linda
grudge
Gods
arity
stor
CY
HHH
Bono
speaker
cannib@@
Seconds
recomend
EEE@@
Gh@@
torrents
Collin
geous
unrated
Raye
engaging
lagh@@
scored
taurus
brooks
Grumpy
ONLINE
Joker
leos@@
IDK
suposed
G7
ji@@
bark
strongest
cal
rarely
dunk
shadows
Oc@@
rejected
resume
lie@@
IGHT
dl
Samantha
conclusion
EEEE@@
nment
HUH
Bag
GHTS
saxophone
dman
roy@@
cringe
Pilot
XL
bana
Porn
maica
Speed@@
spel@@
dergar@@
gud
pineapples
azz
Alternative
idols
boob
gil@@
dosent
membership
eple
lins
sians
WHA@@
het@@
sier
capital
dancin
alle@@
eled
stab@@
77
kazaa.com
sphere
ACT
deser@@
Ky@@
Large
iro
Serenity
mography
Tiff@@
cody
CRU@@
VIS
color@@
hip@@
Tan@@
ceme@@
mutant
takin
clap
toby
turner
17th
teer
ounds.com
achi
cea@@
DENT
Yandel
Wisin
geaton
Sus@@
Sno@@
GONNA
lesson
moo
live@@
freaked
widely
THA
curly
ROCK@@
SCORPI@@
tech@@
ORI@@
jeal@@
anu
equipment
ELE@@
Bridge
Oliver
dvayne
Lep@@
MTV2
Chronicles
Into
bre
gth
www.imesh.com
make@@
fish@@
BAL@@
Reggae
Jonathan
bodys
Stairway
Fore@@
WEEK
COMP@@
sink
pretentious
SPO@@
fin
trou@@
impact
vampires
PLAY@@
Alot
avatars
CHARLIE
trick@@
orchestra
lil@@
rot
O.C.
nia
gest@@
insur@@
booze
rly
ounded
Burning
QUEEN
HOTT
scheduled
Andrews
NBA
Bravo
insisted
ketchup
SOUND
mickey
wrestle
Ass
sympathy
LANGU@@
dered
dresser
pepper
EPISO@@
COU@@
escor@@
anime@@
ABSOLU@@
TELY
degrees
Brick
hamster
ata
smel@@
Bed
79
Miscellaneous
bots
enna
Rest@@
Religion
Scan@@
arez
Teleph@@
Strangers
scottish
cket
Angie
interviews
DEATH
pokes
Harvey
consequ@@
shocking
board.com
68
HARRY
squee@@
reproduce
elu@@
Avatar
cos@@
Donnas
kipedia.com
mummy
Denny
strat
fender
telecaster
py
updates
1,000
EEK
INTO
wis
enters
unstable
Window
dgy
Paisley
winter
operas
raged
MARI@@
therine
bun
dently
wwe.com
Amber
knob
EARTH
sta.com
2,@@
Tes@@
askjeeves.com
d-
baked
bells
richie
drome
tyler
Bb
opens
ational
winked
WONDER@@
Person
inno@@
lousy
thern
east@@
deras
Magnum
imed
Lets
Future
courting
stuff@@
beat@@
Learn
broadcasting
domo
Buckley
tharine
pad@@
Phe@@
Ready
EW
anthem
bulb
Gray
Lati@@
Whats
duction
marketing
Soldier
.he
seventies
stand@@
OON
thered
wallace
pooh
Herbie
ANSWER@@
Ayla
nero
trafficking
hattan
hahah
Dominoes
alphabe@@
aces
Mc
ph
Pig@@
Pacino
necks
WATCHED
chio
hoff
yummy
Flavor
ired
Source
Isley
xed
mming
gust@@
frag@@
git
converter
Kelis
stan
sentenced
ANGEL@@
rescue
Jan
tted
bollyfm@@
cir@@
LEE
minems
slipped
ama@@
confess
gabri@@
criminal
Gilmour
reminiscent
Sylvester
naive
SHUT
BACK@@
hill@@
chic
Scree@@
mmmmmm
matt
SAYS
screams
samantha
astro@@
slam
cables
Upon
gates
applies
Bros
Videos
Ur
nowadays
spike
xon
psy
Redneck
Mar
garden@@
drew
Insane
'n'@@
Cheney
Dino@@
Cel@@
pect
APRIL
foremost
seper@@
dgeball
ci
mick
JONES
Cure
screamo
know@@
Sting
Anne
STOR@@
illis
POST
contacts
Dying
smackdown
nib@@
noon
roads
wicke@@
suited
rue
xs
Wr@@
sym
suitcase
Twi@@
trade
sigh@@
stworthy
ghty
shek
etto
Vir@@
recap
shotgun
sinatra
Sim@@
roseanne
virginity
fig@@
universal
mention@@
ve-
meo
urinated
tools
uu@@
need@@
www.zi@@
eak
corpor@@
yankee
earl
dra
tionally
smug
sque
stick@@
tripped
Regar@@
Dol@@
ough@@
FRI@@
tiring
anan@@
entually
subtle
unacceptable
sali@@
wland
staff
sus
sweating
sage
seph
sory
zenegger
introduc@@
Secre@@
Ano@@
individu@@
ela
statements
comet
snakes
sammy
straw
saddest
smokes
atly
tragic
www.coolgoose.com
tiv@@
appy
stati@@
seful
zipper
erial
workout
refering
rockstar
sible
labe@@
spandex
uhm
55
veiw
violet
unsightly
unsuccessful
residence
whacked
graphi@@
thbusters
Secon@@
TRU@@
Won@@
on.com
tumn
annon
trading
tivo
xar
toothpaste
acqua@@
iden
riani
LLY
rear
nine@@
mise
trombone
shorts
suck@@
stewart
wiches
coat
titties
roosters
JOH@@
partic@@
stuf
zzz
skan@@
stumbled
after@@
warn
zzzz@@
rescued
otic
ulti@@
tourist
thes
stephen
ssey
semi
stasia
homo@@
Rev@@
seventy
sobs
Lear@@
even@@
sul@@
insul@@
wse
referenced
drin@@
zach
tax
retrieve
vague
tonite
vor
www.musiciansfriend.com
avo@@
vio@@
wilson
sheep.com
wail
ugu
spital
scout
turnips
vseki
thetics
disor@@
fab@@
throws
WHO@@
surf
tcha
WAYS
ringer
thing@@
tective
yur
smal@@
whichever
steen
pey
usha
substance
disapp@@
www.bored.com
sures
www.mp3fusion.net
Squ@@
CCCC@@
vert
tia
settling
vember
secure
thrown
recipe
pression
sette
uate
skittles
sessed
REE
adverti@@
Kin@@
www.retro@@
santana
cember
refund
broad@@
LINE
sneeze
FT
spoiler
stevie
diff@@
Pump@@
disne@@
rooms
dentally
rymore
sponsor
unlock
smash
dicated
uptight
stani
zier
recipes
shment
tommy
lizabeth
volleyball
soap@@
zart
worthless
tured
icked
brune@@
stortion
shee@@
ickey
advertise@@
artic@@
vic
steel
Dre@@
mail.com
tele@@
tron
sophi@@
urer
thong
shel@@
cocon@@
tavi@@
rubs
spli@@
dys
bor
visible
ached
va.org
Viol@@
scan
ener@@
help@@
serv@@
haw@@
viewer
treasure
ulsive
Fil@@
Vic@@
releasing
ERIC@@
uel
tite
washes
worldwide
figh@@
thom
stamp
lipp@@
oppo@@
spain
ILE
shook
zine
thony
sum1
ails
weirdo
soooooooo
signer
tated
steful
ffered
rupted
ilers
singly
steady
similiar
vowels
theories
toon
anca
Pau@@
Ü
sville
illion
ician
99@@
ymour
tery
sympathize
zone
quick@@
tails
salesman
surprisingly
respon@@
shallow
weddings
just@@
tario
rick@@
undoub@@
signal
trilogy
sar
Bear@@
abor@@
coa@@
asha
utilizing
well@@
rison@@
llll@@
rehab
BLA@@
HEL@@
zan
wana
string@@
encou@@
ssus
Nar@@
whining
plo@@
LC
tatoes
urge
Rep@@
squarepants
televison
receptionist
gover@@
weary
ctors
lab@@
opra@@
lanta
nabe
sterix
sheer
yeliner
colo@@
tellin
repetit@@
shahrukh
poe@@
rug
upstairs
ondo@@
succeeded
wacky
vich
does@@
answ@@
sser
treat@@
dru@@
rev@@
remarried
remained
sor
username
stom
responds
daugh@@
www.the@@
ssment
rinking
www.warez.com
bott@@
phys@@
GIR@@
tained
reflection
ONCE
sau@@
tales
spiky
soundcli@@
zona
sher@@
imi
stunt
shane
resources
UP@@
uter
www.your@@
pted
Pur@@
shor@@
yrics.com
isy
ummmmm
tourists
training
reall
ird
entr@@
wman
researching
resting
ionally
sota
wednesday
custo@@
steven
Bol@@
render
Tel@@
sample
ively
wr@@
roa@@
skate@@
refreshing
busters
tdown
uneducated
illers
ruins
stitu@@
shaw
singin
ulu
vibe
suing
Kenne@@
sitter
sassy
spun
NY@@
tless
xible
thrift
umbrella
vacaine
spot.com
hanna
sexuality
taped
ops
strippers
stards
sizes
sticky
suprised
pric@@
Wy@@
Sag@@
shaved
dless
icide
Mid@@
sensical
ug@@
sest
tched
zil
video.google.com
speciali@@
tombstone
rr@@
Spi@@
xio
shers
itish
t.i
tten@@
twin@@
ualy
volta
compla@@
unplug
gic
exam@@
teaching
red.com
tuary
rik
stion
sadness
warner@@
sofa
sgiving
vag@@
Grand@@
liter@@
sarcasm
rebel@@
crit@@
icky
ricorn
rolls
symone
erosmith
www.santabanta.com
ellent
begin@@
Evan@@
tuck
genu@@
KE@@
pregn@@
Rus@@
nis
thankful
MUS@@
elve
www.mu@@
volu@@
guitar@@
waii
unbelievable
xie
Gru@@
clear@@
mist
zeddl@@
transit@@
orida
sicle
trivial
gossi@@
becu@@
rom@@
substances
poten@@
nas
dog@@
ckey
Rac@@
Net@@
Pul@@
achi@@
reamy
ittor@@
carto@@
Maj@@
¿
Len@@
KIN@@
HEAR@@
esel
wich
vam@@
vels
ballo@@
enny
Guit@@
Amer@@
beha@@
illie
rison
intrigu@@
hehe@@
Defin@@
ingfield
versal
fru@@
ketball
Skyn@@
ridicul@@
venge
loween
thri@@
fessi@@
Vis@@
Stran@@
zel
Poo@@
crack@@
ddenly
ption
channel@@
dac@@
Os@@
Ras@@
natur@@
ronicles
tonio
ppi
austra@@
TTY
atloaf
finity
EARS
Some@@
perver@@
sas
Hy@@
ub@@
lution
zza
xic@@
ext
pplin
messa@@
minal
eting
audi@@
Cir@@
cartney
nific@@
nex@@
produc@@
Dor@@
uary
Napo@@
than@@
Poli@@
Reg@@
Sex@@
fore
KKKK@@
mista@@
sail@@
Oper@@
stols
org
bay.com
cl@@
inte@@
gedies
liday
cade
fash@@
UNE
Absolu@@
1.com
psych@@
Aguil@@
yne
kis@@
Pra@@
ssi
practic@@
Up@@
Beau@@
horosco@@
vigne
OUL@@
MES
thank@@
NT
ckinsale
HHHHHHHH@@
exe@@
sound@@
Arti@@
BLU@@
cali@@
Smur@@
sewives
ans@@
ince
cence
mage@@
orm
evid@@
illa@@
err@@
Tunes
EEEEEEEE@@
credi@@
appropri@@
it.com
raid
Incredi@@
atures
promis@@
ittarius
hh@@
aban@@
ret@@
consu@@
classi@@
eral
oos
ckbu@@
apan
marri@@
chize
prefer@@
antic@@
gular
oom
cury
entine
Emer@@
.co@@
Spir@@
shit@@
ira
vered
shoo@@
mily
atomy
Scar@@
letssingit.com
helle
anic
fessional
stable
Goog@@
guit@@
episo@@
hats
art@@
spre@@
East@@
ensive
itney
ok@@
esterday
mical
fact@@
depend@@
Tea@@
é@@
attemp@@
db@@
SEX@@
respe@@
arius
gall@@
icha@@
asy
Ou@@
Frank@@
Tech@@
ceased
STO@@
shin
sole@@
rrrr@@
ona@@
alth
apologi@@
itamin
gus
ims
arti@@
incredi@@
geon
HAR@@
scribe
sel
3g@@
separ@@
sedly
thful
own@@
OFF@@
shington
ittorrent
mad@@
rius
ESS
Radio@@
dicul@@
ema@@
beg@@
onica
mage
answe@@
amonds
CHAR@@
secon@@
dent@@
calyp@@
stery
turama
iter
bulous
shir@@
ANSW@@
identi@@
sk
fessor
emb@@
Ci@@
caine
mately
recei@@
roe
inny
usion@@
conne@@
blan@@
Dav@@
addit@@
xxx
sh.com
casse@@
Af@@
coho@@
Swi@@
sored
appear@@
ier
eces
rists
idi@@
aribbean
tten
TAL
ardo
Willi@@
Hou@@
dn
abama
stel
shwarya
yla
happen@@
taly
concentr@@
kh
dge@@
verti@@
Vide@@
cliffe
thar@@
napo@@
Leg@@
tally
edy
ttle
deta@@
nivers@@
Ther@@
therspoon
illage
stun@@
virgin@@
ittles
stron@@
wain
hie
pires
eria
90@@
proble@@
veheart
DEA@@
Cont@@
bored.com
opportun@@
vior
distri@@
ELLY
Ale@@
brow@@
epy
tis@@
COUN@@
micro@@
minator
onaire
NR
cee@@
ouge
dson
novel@@
Wis@@
dios
smur@@
Soldi@@
extre@@
gies
dacris
adon@@
sexu@@
sation
opher
stes
Bau@@
taining
mme
DOE@@
boar@@
rek
perfe@@
itchie
wall@@
possi@@
respect@@
everal
lowcard
tray
cele@@
chang@@
Pir@@
popul@@
yasha
ximately
into@@
Law@@
schedu@@
zen@@
indi
sitive
nique
ared
Cli@@
deter@@
kipe@@
vidu@@
lizabe@@
vd
share.com
Cour@@
olf
hoho@@
areena
ttery
Hallo@@
une@@
Person@@
Andre@@
repe@@
Ren@@
enties
spel
zzfest
sequ@@
provi@@
ems
knowledg@@
ference
valu@@
​
tera
WOO@@
.co.@@
tober
db.com
ould
Shaw@@
gressive
ich@@
aine
thon
ebe
SEL@@
mbstone
anish
Sti@@
presents
master.com
danc@@
inge
croo@@
illz
000@@
Dani@@
lity
isa
EAN
ord
Pap@@
lized
reun@@
OUGH
Fav@@
cisco
expla@@
nife
ylor
mpe
Explo@@
blet
athle@@
att
9x9x@@
regre@@
liott
quest@@
odeon
eland
ZY
progra@@
Sop@@
comend
hound
IMD@@
enge
WWWWWWWW@@
reje@@
downlo@@
amin
prob@@
vers@@
laugh@@
Carol@@
Euro@@
Lyric@@
sama
conv@@
secre@@
MTV@@
THIN@@
book@@
base@@
spoo@@
Scorp@@
WOM@@
tional
etings
HUHU@@
compu@@
Dragon@@
igs@@
wels
fant@@
ul
ython
expen@@
ceed
kira
regi@@
aa.com
Smo@@
33@@
state@@
lad
gist
ii
COM
Plu@@
round@@
tiful
shville
Retur@@
coms
McP@@
invest@@
tem@@
AWE@@
angers
YZ
VH@@
world@@
tttt@@
Rhy@@
Light@@
dents
acqu@@
cil
INTER@@
compar@@
relev@@
peci@@
gome
dk
pleas@@
telev@@
lus@@
Mach@@
¡
ouring
faction
SN@@
beac@@
transl@@
asn
ignor@@
Sil@@
zeneg@@
supri@@
extra@@
urin@@
perform@@
scri@@
bru@@
Care@@
refriger@@
request@@
entworth
EVE
equi@@
retro@@
viously
acious
ellite
verage
chest@@
oughly
sually
Ken@@
bba
liest
Pub@@
erry
Beck@@
orly
LEASE
industri@@
zzzzzzzz@@
ousin
tice
Amaz@@
roll@@
Did@@
miths
intoxic@@
cohol
costu@@
resul@@
reason@@
ames
Broo@@
deed
McCar@@
Veg@@
spite
vali@@
Down@@
ercise
amon@@
YouTu@@
youtu@@
ular
vate
vana
Fanta@@
Comple@@
Wol@@
devel@@
nery
enjo@@
¢
sively
ucky
frighten@@
Mega@@
repu@@
Rab@@
free.com
categ@@
wei@@
Yahoo@@
SV@@
p2@@
nea@@
advan@@
faithful
rentice
maha
Speci@@
loyd
sele@@
Enter@@
nickel@@
curity
tern
eah
BIR@@
ymond
attribu@@
Bab@@
WA
aliyah
suppo@@
WON@@
profession@@
Mas@@
SOM@@
disappoin@@
Samur@@
rigin@@
KK@@
dsey
baly
Pier@@
ñ@@
soun@@
askjeev@@
EEN
issa
ittle
ctu@@
Red@@
knot
destin@@
spea@@
popu@@
itate
rently
asure
Adv@@
xxxx@@
anger@@
ination
EVER@@
essa
holas
demption
ü@@
resses
oung
scor@@
ylan
stead
pretti@@
eady
leveland
dia.com
Addit@@
lars
regon
isley
rubb@@
ghtest
bute
Thur@@
minino@@
DAM@@
dney
diffe@@
askje@@
pedo@@
Steph@@
bain
bruary
rand@@
kia
toil@@
mberlake
ules
Rapp@@
kay
ERE
guar@@
oran@@
FE
scari@@
wit@@
mosqu@@
allas
sode
survi@@
entit@@
oli@@
porno@@
arah
Summ@@
cism
sant@@
holson
Clu@@
discoun@@
ccer
Mont@@
guaran@@
OT
concer@@
Night@@
dren
tures
scrip@@
sterio
meta@@
Rap@@
tle
NET
Dep@@
PT
dele@@
gues@@
nau@@
LF
ened
esy
MOVI@@
WEB@@
sr@@
ı
samp@@
educ@@
elings
Answ@@
redith
estyle
ridd@@
ults
SIC
·
zar@@
AMAZ@@
gaby@@
intri@@
TC
precha@@
ware@@
ester@@
lissa
Thr@@
aniel
loading
ween
kast
Inte@@
bate
tney
ause
mione
deth
ssor
Never@@
DDY
gaz@@
tterman
dg@@
distur@@
rect
Ok@@
num
illaz
aol@@
ror
intel@@
numer@@
POIN@@
ilo
ceeded
GLY
ackdown
pron@@
Pho@@
dred
wier@@
CALL@@
kidna@@
sterious
TEST
mphis
ficial
itler
inci
UCK
theat@@
ilogy
eph@@
endy
pecially
DOWN@@
esday
Bli@@
entucky
gree
commerci@@
§
Jud@@
Chil@@
ö@@
cess
liot
refer@@
visit@@
BLON@@
santaban@@
weir@@
valent
LEAR@@
R.I.@@
lma@@
Hei@@
Teen@@
minu@@
GON@@
produ@@
©
Nap@@
Magaz@@
amo@@
credited
Recor@@
godd@@
illiant
ternatively
labor@@
Bever@@
purcha@@
regu@@
juana
letssing@@
shboard
Ira@@
elder@@
mediately
SSSS@@
desi@@
partment
irway
ffee
cur
interest@@
won@@
libr@@
oulev@@
six@@
irmative
Adul@@
vei@@
particul@@
recogni@@
eton
znor
cancel@@
TTLE
excit@@
respectful
cess@@
Buck@@
Stra@@
dely
alogue
tti@@
point@@
warez.com
sett@@
unny
Gentle@@
hapsody
SOR@@
Possi@@
embar@@
RIS
ito
IMDB@@
BO
ske@@
fts
wro@@
Domin@@
mbie
eisha
thle@@
McGu@@
inebri@@
gera
mare
Det@@
fers
˝
associ@@
hrukh
fif@@
wre@@
Pres@@
scrat@@
mors
Austra@@
comedi@@
skel@@
wart
oph@@
conven@@
ryp@@
yahu
finan@@
dden@@
unes
grees
ŕ@@
AMERIC@@
othy
linton
ticket@@
FAVOR@@
demon@@
cred@@
goria
eption@@
sionally
acou@@
rema@@
chemist
reminis@@
rece@@
rease
utiliz@@
morrow
mach@@
Nin@@
exer@@
Cer@@
preferen@@
CEPT
ta.com
aughn
banan@@
rystal
WITH@@
endin
pz
solina
mption
Contro@@
forfree.com
Chapp@@
ador@@
ERY
Vent@@
comfor@@
itely
dows
cis@@
lesbi@@
infat@@
warya
urouni
hind
instre@@
timate
calypse
sales@@
rd
LOAD
trivi@@
worl@@
lease
ttish
Danc@@
Mol@@
icle
remin@@
Wig@@
Leon@@
Syl@@
esney
eas
quir@@
fia
zarre
嘉@@
anore@@
icial
Ene@@
義@@
nips
leon
.com@@
kson
人
atman
confe@@
因@@
essica
BEAU@@
hio
綠@@
WW
space.com
orgia
drun@@
Pod
YEA@@
YAN@@
pup@@
Eag@@
ped@@
avat@@
SI
fect
Simp@@
abili@@
verine
orang@@
Cele@@
retar@@
perman
marion
2P
Life@@
alph
為@@
reha@@
REME@@
rever
moirs
bbean
á@@
hatt@@
D4@@
LOR
ribu@@
hap@@
ALBU@@
orgi@@
Mex@@
TR
ouldnt
listic
mmar
awk@@
List@@
dul
higan
adv@@
dingfield
presen@@
ssic
stero@@
仁
SCH@@
Top@@
musiciansfriend.com
豆@@
Shir@@
nson
thur
Scor@@
tainment
Six@@
obvi@@
Graw
acter
mesh.com
stumb@@
dgen@@
MAY@@
加@@
mbe@@
薏@@
iction
shri@@
spy@@
superi@@
humor@@
alities
VOR@@
Lag@@
THOU@@
Pods
gare@@
ı@@
mod@@
ilar
ean
sands
icles
FRO@@
situ@@
Virgin@@
AGA@@
RECOR@@
treme
ask@@
ret
ager
evision
dern
sured
AO@@
BELI@@
.google.com
ude
lance
subscrip@@
youts
parano@@
Canc@@
Broad@@
cell@@
fron
vors
HOO
pathe@@
UGH@@
lier
hapso@@
dum@@
ppies
urus
hero@@
seki
THR@@
ctac@@
veh@@
Mr@@
ansas
í@@
Atre@@
ason
experi@@
dogpil@@
soooo@@
tato
unes.com
tionary
ù
WHIC@@
manu@@
issu@@
Flat@@
member@@
twish
Gir@@
orge
apy
retri@@
sbur@@
tween
milli@@
yak
OOSE
soline
Jes@@
Ret@@
flix
prostitu@@
ingfi@@
edly
consist@@
sche@@
tifully
derson
H.I.@@
thize
specif@@
niversary
bele@@
insi@@
Groo@@
tau@@
entle@@
urday
IDO@@
sax@@
ceive
evin
LAU@@
digy
lett
impl@@
easi@@
ó
lippines
Boulev@@
Sol@@
stem
atar
ify
inst
Ü@@
ittsbur@@
Movi@@
mpoo
copes
uated
idio@@
shank
Jean@@
¹
stere@@
fund
comment@@
sper@@
Ä
althy
Sopran@@
opin@@
rese
evan@@
Blon@@
ƒ@@
spectac@@
tious
umb@@
techn@@
Seri@@
enjoy@@
oughout
rean
experien@@
uto
thday
pheus
Camer@@
icans
irty
rog@@
esse
qua@@
hide@@
mato
tempor@@
lino@@
Sour@@
etubbies
desmaid
Mir@@
alpha@@
coolgoose@@
bath@@
sical
stence
apan@@
lusion
cussion
sinc@@
www.3g@@
tware
Plan@@
tradit@@
Aga@@
promiscu@@
usi@@
conventi@@
sewhere
knowle@@
thorne
fornia
amn
QUEST@@
Aff@@
☺
norm@@
PLE
itchen
á
rica
hung@@
contest@@
hahahahahahahaha@@
HIM@@
gery
ARIOUS
kota
manda
eacho@@
wt@@
bably
rella
albu@@
م@@
PERFE@@
PAU@@
codile
vide@@
semb@@
mainstre@@
bumps
ه
½
TUALLY
ا@@
س@@
TW
Æ
lieve
gratul@@
matt@@
anno@@
newspa@@
hope@@
◄
FY@@
esty
diffic@@
adi@@
BAY
Fant@@
refri@@
pointment
SCOR@@
religi@@
λ
IDI@@
sugg@@
arrog@@
pelin
spac@@
previ@@
Oli@@
outra@@
santabanta.com
msteen
derella
irt
►
pknot
Armage@@
vil
Ds
YOUR@@
solu@@
rench
magaz@@
irable
THA@@
NEE@@
awyer
Gl@@
bson
phile
butter@@
Spro@@
ddings
COUR@@
ww.@@
excep@@
bastank
\
loaf
adequ@@
sympa@@
roit
ardy
diot
intellig@@
fair@@
VIDE@@
abe@@
yote
femin@@
steph@@
ither
Opra@@
♡
lag@@
rible
bedr@@
è@@
500@@
ior
........@@
keting
THO@@
wadays
licated
onathan
tagon@@
erci@@
slow@@
cellaneous
favour@@
chup
suction
mg
lull@@
Reli@@
PEOP@@
FIR@@
heal
coln
DIR@@
Volu@@
struction
Pis@@
JOHN@@
relai
pons
suit@@
vacu@@
ott
teenag@@
yler
nifer
bolly@@
lahoma
keback
charact@@
gomery
WAT@@
thout
ffe
avail@@
adian
auth@@
dol
renity
move@@
à
professi@@
Chen@@
neighbor@@
œ@@
pment
imp
resp@@
saw@@
NN
entertain@@
