. 68289
, 42445
I 38005
the 32048
! 24149
is 23025
to 22378
a 21811
it 20633
and 20214
you 18247
that 14306
? 14261
of 13069
not 11527
i 11296
in 9603
but 8756
on 8111
't 7987
have 7895
like 7792
's 7784
are 7576
" 7400
was 7025
for 6701
do 6517
... 6355
be 6238
my 5863
they 5817
he 5714
with 5223
know 5149
The 5095
can 5035
me 4810
think 4786
would 4506
so 4442
It 4415
one 4398
or 4371
if 4168
she 4103
) 3911
am 3879
just 3801
your 3727
good 3676
song 3673
as 3534
don 3483
all 3475
her 3441
You 3440
what 3310
get 3302
will 3299
this 3274
: 3101
at 3085
them 2932
out 2931
by 2905
about 2903
( 2893
go 2868
no 2841
there 2835
@-@ 2826
movie 2753
love 2741
because 2662
from 2548
his 2506
u 2455
has 2433
an 2349
really 2338
up 2327
music 2317
him 2203
If 2177
- 2147
' 2145
very 2141
who 2110
its 1987
'm 1977
more 1888
then 1887
find 1885
He 1856
did 1854
too 1849
should 1832
.. 1814
want 1808
some 1777
when 1764
people 1712
time 1693
say 1687
see 1642
A 1642
best 1633
* 1626
show 1622
believe 1602
sure 1575
great 1556
That 1554
dont 1486
well 1479
My 1477
No 1459
They 1452
.... 1415
only 1415
their 1412
had 1411
name 1407
now 1402
man 1398
got 1384
any 1367
much 1362
could 1350
way 1319
2 1304
songs 1283
watch 1272
look 1264
try 1254
answer 1250
heard 1240
how 1232
other 1231
never 1218
She 1215
even 1211
question 1210
Yes 1194
make 1192
were 1177
still 1170
going 1158
does 1132
; 1095
better 1081
funny 1078
first 1073
old 1050
ever 1048
why 1043
we 1040
said 1037
than 1022
need 1013
also 995
though 994
What 994
movies 979
right 977
guy 944
enjoy 941
something 940
& 930
favorite 923
/ 922
many 909
back 907
been 900
big 890
There 881
day 877
band 874
always 874
're 858
lot 846
bad 842
where 842
mean 839
called 838
girl 836
THE 833
website 825
off 822
both 822
ask 818
seen 816
yes 816
pretty 814
tell 814
But 803
two 801
most 798
play 796
search 791
hope 783
Do 769
here 767
listen 748
1 745
use 739
new 729
download 729
In 718
thing 715
life 711
3 708
im 706
looking 703
This 702
may 700
thought 691
'll 686
down 683
S@@ 682
person 682
've 680
give 678
anything 676
fun 667
little 658
over 657
didn 657
which 649
same 648
Your 647
probably 645
And 637
guess 624
lol 616
own 614
remember 612
made 608
sorry 605
able 596
Good 594
looks 594
free 593
hot 589
side 587
friend 584
saw 579
www.@@ 578
attractive 576
cool 572
A@@ 569
rock 568
4 567
maybe 566
work 566
things 565
re@@ 563
someone 562
might 560
help 559
e@@ 559
left 557
mother 557
let 555
real 554
before 554
read 553
come 549
check 545
type 543
used 543
last 537
5 537
sing 535
take 535
T@@ 534
points 532
B@@ 532
IT 526
'd 525
Yahoo 523
such 521
again 520
says 515
stuff 514
cannot 511
Why 509
after 508
ur 507
o 505
P@@ 505
r 503
else 502
lyrics 498
k@@ 497
care 497
Please 497
Go 496
TO 495
in@@ 493
IS 492
Oh 492
into 491
thats 491
those 486
yeah 484
nice 482
yet 481
stupid 480
long 477
friends 477
Don 473
album 473
AND 471
C@@ 471
d@@ 469
agree 469
t 467
below 466
every 466
year 465
buy 464
around 464
10 462
put 461
D@@ 461
however 461
t@@ 460
E@@ 457
b 457
fan 455
years 454
rap 453
a@@ 452
while 451
feel 451
e 449
sounds 449
baby 448
K@@ 448
How 447
money 446
either 443
un@@ 442
luck 440
F@@ 433
..... 432
please 431
s 427
So 424
questions 423
Is 421
Well 421
anyone 420
ya 420
found 420
i@@ 419
us 416
hate 416
win 415
hard 414
n 414
YOU 413
video 413
watching 412
won 412
G@@ 409
site 408
doesn 406
idea 406
fat 406
kind 405
live 405
.com 404
$ 404
p@@ 404
already 404
being 403
CD 403
Just 402
wish 402
When 401
wait 399
D 397
different 397
home 397
o@@ 397
b@@ 397
information 397
another 396
head 396
hear 395
must 393
actually 393
y@@ 392
squares 392
understand 391
y 390
singer 386
everyone 386
boy 382
makes 381
girls 381
M@@ 379
yahoo 377
c@@ 377
sound 377
Who 377
.@@ 376
m@@ 373
since 372
men 372
gay 369
Not 369
keep 369
Because 367
went 367
once 367
nothing 366
quite 365
We 365
oh 363
wrong 363
awesome 362
Are 362
guys 359
doing 359
choose 359
All 358
g@@ 358
next 357
course 356
Love 356
talking 355
cause 355
cant 354
Yo 354
N@@ 354
ing 353
voice 350
yourself 349
_ 349
I@@ 348
gets 348
opinion 347
Try 347
film 347
times 346
woman 346
de@@ 345
Day 345
hair 343
liked 340
TV 340
end 339
One 337
= 336
s@@ 336
L@@ 331
without 331
ed 330
m 330
R@@ 329
watched 327
dance 327
H@@ 325
these 323
American 323
call 323
f@@ 323
W@@ 323
h@@ 322
50 322
Chris 322
place 321
n@@ 321
cute 320
night 319
number 317
book 316
IN 316
three 316
played 315
O@@ 315
ok 314
few 313
getting 312
school 312
k 311
gonna 311
red 310
limewire 310
hell 307
prefer 307
away 307
isn 306
li@@ 305
6 305
son 305
world 304
bit 304
trying 304
Green 304
television 304
w@@ 302
al@@ 302
kids 301
OF 301
playing 300
bands 300
p 300
enough 300
pick 300
wanna 299
Have 295
done 294
U 294
similar 294
age 293
To 292
Me 292
means 292
w 291
di@@ 291
Luck 291
sings 290
everything 290
etc 289
list 288
THAT 288
days 288
depends 287
J@@ 287
@ 287
For 286
guitar 285
haven 285
E 283
O 282
c 282
young 282
wanted 280
da 280
'@@ 280
others 280
On 279
er 278
mom 277
es 277
l@@ 277
mine 277
true 277
B 276
myself 276
ate 276
google 276
Now 275
least 275
asked 274
en@@ 274
goes 274
blonde 274
ones 272
together 272
country 271
loved 271
far 268
an@@ 268
came 268
Paris 267
shows 265
R 265
black 264
r@@ 263
d 262
However 262
episode 261
second 261
phone 261
radio 261
j@@ 258
wife 258
# 258
wouldn 257
women 257
Yeah 257
crazy 257
x 256
start 256
u@@ 256
married 256
die 254
ma@@ 254
Can 253
seems 253
kinda 252
stop 251
having 251
family 251
joke 251
st@@ 250
mama 250
le@@ 249
v@@ 249
correct 249
click 247
definitely 246
listening 246
part 244
ly 244
house 244
S 244
ago 244
series 243
po@@ 243
asking 243
season 243
internet 242
reason 242
ts 241
happy 241
comes 240
matter 240
cuz 240
mo@@ 240
Here 239
8 239
coming 239
Y@@ 238
each 238
top 238
sister 237
z 237
NOT 236
artist 236
anymore 235
mind 235
it@@ 234
hey 234
be@@ 234
talk 234
ugly 234
using 233
children 233
email 233
ha@@ 233
ers 231
actor 231
no@@ 230
large 230
ON 229
thinking 229
child 229
word 228
...... 228
hit 228
se@@ 228
beautiful 228
high 228
hes 227
sexy 226
eat 226
cd 226
me@@ 226
As 226
group 226
C 225
V@@ 224
yo 223
Did 223
ass 222
Tom 222
rest 221
tried 221
lots 221
told 221
ar@@ 221
full 220
until 220
ra@@ 219
alot 218
ten 218
g 218
Limewire 218
Some 217
lo@@ 217
father 217
ro@@ 217
pe@@ 216
answers 216
God 216
saying 216
P 215
Get 215
T 214
dead 214
beat 213
enjoyed 213
de 212
la@@ 212
K 212
Maybe 212
computer 212
Like 211
under 211
Hey 211
especially 211
our 211
amazing 211
brother 210
sex 209
on@@ 208
7 208
Of 208
send 208
er@@ 207
Rock 207
version 207
punk 207
th@@ 207
Then 206
interesting 206
Google 206
dude 205
face 205
co@@ 205
at@@ 205
link 205
looked 205
metal 205
Man 205
pay 204
9 204
al 204
okay 204
words 204
game 204
dog 203
sad 203
recommend 203
almost 202
king 202
popular 202
Sorry 202
sh@@ 202
works 202
HE 201
knew 201
ri@@ 201
certain 201
3@@ 200
soon 200
singing 200
New 199
doubt 199
ch@@ 199
ter 198
th 198
whole 198
white 197
Although 197
2@@ 196
sa@@ 196
Boy 196
point 196
to@@ 195
or@@ 195
anyway 195
M 195
through 195
picture 195
BUT 194
bo@@ 194
His 194
line 194
kid 193
ti@@ 193
five 193
wa@@ 192
NO 192
X 192
z@@ 192
ation 192
dumb 192
become 190
mail 190
em 190
DVD 190
Wow 188
between 188
se 187
con@@ 187
kill 187
en 186
story 186
Big 186
online 186
wants 185
Girl 185
tv 184
laugh 184
favorites 184
older 184
'T 184
named 184
date 184
Idol 184
problem 184
ab@@ 183
seem 183
choice 183
LOL 182
rather 182
likely 182
likes 181
car 181
pop 180
title 180
totally 179
Harry 179
G 179
sometimes 179
store 178
female 178
simply 178
dunno 177
wasn 177
Black 177
player 177
job 176
character 176
MY 175
sucks 175
easy 175
Y 175
ca@@ 174
U@@ 174
Re@@ 174
Its 174
famous 174
week 174
Or 173
write 173
boys 173
as@@ 173
At 173
sign 172
aware 172
N 171
First 171
ne@@ 171
suggest 171
knows 170
making 170
videos 170
King 169
unless 169
4@@ 169
yea 169
l 169
although 168
learn 167
dad 167
f 167
Out 167
Z@@ 166
am@@ 166
ac@@ 166
didnt 166
eyes 166
less 165
ha 164
pre@@ 164
cu@@ 164
ine 164
fine 164
move 164
ted 164
started 164
el@@ 163
ds 163
couple 163
died 163
F 162
gotta 162
'S 162
order 162
do@@ 162
sang 162
club 162
LOVE 162
whatever 162
per@@ 162
available 162
dy 161
fact 161
hop 161
case 161
act 161
green 161
bu@@ 161
80 160
star 160
um 160
Let 160
visit 160
Kelly 159
SO 159
couldn 159
boyfriend 159
possible 159
bet 158
le 158
boring 158
worth 158
program 158
pro@@ 157
ALL 157
Baby 157
leave 157
Will 157
la 156
De@@ 156
close 156
late 156
After 155
hip 155
half 155
Johnny 155
info 154
cares 154
suck 154
In@@ 154
heart 154
shes 154
ME 154
forget 154
Taylor 154
shot 154
today 154
door 153
L 153
ps 153
often 153
Even 153
s.com 152
Where 152
crap 152
needs 152
air 152
ic@@ 152
ive 151
aren 151
happen 151
gone 151
yahoo.com 150
chance 150
Perhaps 150
husband 150
purchase 150
Best 148
> 148
ling 148
DO 148
Be 148
self 147
ated 147
usually 147
Co@@ 147
change 147
wonder 146
vote 146
girlfriend 146
pa@@ 146
sp@@ 146
HAVE 145
turn 145
lost 145
Jack 145
daughter 144
ke 144
THEY 144
WAS 144
instead 144
break 144
sick 144
si@@ 144
ill 144
worry 144
fall 144
helps 143
ARE 143
classic 143
hand 143
released 143
wonderful 143
ex@@ 142
ST@@ 142
original 142
es@@ 142
dream 142
four 142
Be@@ 141
20 140
der 140
weird 140
12 139
stand 139
himself 139
scary 139
ve 139
style 139
momma 139
referring 139
miss 138
body 138
LIKE 138
born 138
Star 138
Most 138
Look 138
longer 138
Ro@@ 138
difficult 138
te 137
male 137
John 137
ice 137
OR 137
ge@@ 137
ding 137
Mr. 137
id 136
took 136
st 136
ting 136
activity 136
v 135
due 135
il@@ 135
happened 135
excellent 135
Jackson 135
drink 135
RE@@ 135
Brown 135
death 135
ous 135
su@@ 135
People 135
worst 135
exactly 134
water 134
....... 134
Ch@@ 134
Also 134
Chuck 134
h 134
Her 134
Check 134
pictures 134
8@@ 133
cartoon 133
-@@ 133
recall 133
Song 133
known 133
web 133
interested 133
god 132
IN@@ 132
ant 132
record 132
na@@ 132
per 132
man@@ 132
Little 132
ONE 132
spell 131
later 131
ck 131
talented 131
ho@@ 131
plays 131
x@@ 131
books 130
ING 130
sense 130
enjoyable 130
unsure 130
bar 129
hi@@ 129
ks 129
sites 129
is@@ 129
killed 129
emo 129
ad@@ 129
damn 129
sleep 129
Michael 129
ity 129
vi@@ 128
CAN 128
BE 128
quality 128
address 128
ger 128
working 128
jokes 128
channel 127
Only 127
episodes 127
stay 127
Boys 127
YOUR 126
station 126
hilarious 126
seeing 126
mi@@ 126
performed 126
Z 125
Fall 125
suppose 125
wow 125
certainly 125
set 125
pants 125
ty 125
bought 124
deal 124
Li@@ 124
go@@ 124
9@@ 124
15 124
sh 124
Movie 123
hands 123
Lil 123
ton 123
run 123
dislike 123
dollars 123
apologize 123
ta@@ 122
Im 122
games 122
loves 122
Park 122
SHE 122
George 122
meet 122
mar@@ 122
St@@ 122
KNOW 121
engine 121
cat 121
thanks 121
LI@@ 121
ating 121
et 121
party 121
Mo@@ 120
single 120
doesnt 120
butt 120
mu@@ 120
minutes 120
drunk 120
copy 119
les 119
With 119
none 119
so@@ 119
ent 119
Music 119
fake 119
ss 118
als 118
magazine 118
IF 118
Joe 118
Ma@@ 118
Life 118
By 118
area 118
ru@@ 117
J 117
mad 117
along 117
30 117
sort 117
scene 117
ally 117
musical 117
view 117
room 116
FOR 116
gs 116
Hilton 116
jo@@ 116
fight 116
small 116
actress 116
led 116
kick 116
annoying 116
consider 116
Hope 115
ED 115
sha@@ 115
walk 115
forgot 115
box 115
Pink 115
11 115
Bo@@ 115
EN@@ 115
Lo@@ 115
ma 115
] 114
months 114
Mar@@ 114
Potter 114
news 114
thank 114
terrible 114
somewhere 113
du@@ 113
Never 113
strange 113
Paul 113
ch 113
James 113
lu@@ 113
town 113
missed 113
unable 113
plus 112
ga@@ 112
rent 112
bed 112
taste 112
ba@@ 112
Le@@ 112
ans 112
qu@@ 112
Family 112
Ace 112
ley 112
sweet 112
lady 111
THINK 111
THIS 111
afraid 111
ze 111
1@@ 111
el 111
To@@ 111
artists 111
gu@@ 110
websites 110
100 110
ic 110
~ 110
MTV 110
birthday 110
Bob 110
alive 110
ys 110
ance 110
cry 109
David 109
^ 109
he@@ 109
met 109
talent 109
open 108
Show 108
Ho@@ 108
wi@@ 108
chris 108
clue 108
pi@@ 108
american 108
Girls 108
GO 107
Norris 107
gave 107
Bu@@ 107
fe@@ 107
ver@@ 107
Q 107
te@@ 107
for@@ 107
six 107
ry 106
fast 106
ebay 106
ways 106
ls 106
White 106
ker 106
dancing 106
Take 106
illegal 105
Eminem 105
paid 105
films 105
perhaps 105
Al@@ 105
Con@@ 105
rich 105
rapper 105
ed@@ 105
--@@ 105
DJ 105
personally 105
supposed 105
during 105
past 104
section 104
light 104
res 104
lie 104
ou@@ 104
stars 104
moment 104
AN@@ 103
greatest 103
waiting 103
5@@ 103
WHAT 103
ly@@ 103
ey 102
AR@@ 102
+ 102
thinks 102
genre 102
month 102
twice 102
sed 102
acting 102
na 102
names 102
voted 102
fond 102
lead 101
ES 101
searching 101
ke@@ 101
bring 101
bass 101
W 101
Cruise 101
Mc@@ 101
ev@@ 100
AT 100
smart 100
Bad 100
above 100
color 100
OUT 100
English 100
ful 100
et@@ 100
homosexual 100
meant 99
lin 99
car@@ 99
alone 99
An@@ 99
share 99
answered 99
ph@@ 99
mat@@ 99
cha@@ 99
sell 99
Come 99
road 99
huge 99
kiss 99
happens 99
appreciate 99
Thank 99
fav 98
recently 98
ending 98
DON 98
chicken 98
Queen 98
hours 98
reading 98
haha 98
H 98
add 98
sung 98
low 98
fans 98
amusing 98
drugs 97
pregnant 97
experience 97
Time 97
ster 97
concert 97
dvd 97
Su@@ 97
alright 97
WITH 97
blue 97
........ 97
While 97
18 97
Hello 97
us@@ 96
Jones 96
Po@@ 96
da@@ 96
ll 96
Jessica 96
ER 96
wear 96
fire 96
13 96
mp@@ 96
dis@@ 96
inside 96
hu@@ 96
gr@@ 96
currently 96
GET 95
receive 95
ER@@ 95
takes 95
Bow 95
tra@@ 95
the@@ 95
bi@@ 95
Men 95
familiar 95
titled 95
fly 94
tho 94
theres 94
7@@ 94
food 94
ded 94
brown 94
-- 94
hold 94
kidding 94
ky 94
singers 94
waste 94
ses 93
action 93
parents 93
House 93
tonight 93
Newer 93
albums 93
heavy 93
Would 93
contact 93
attention 93
ta 92
Got 92
absolutely 92
ge 92
wh@@ 92
wrote 92
eye 92
ms 92
simple 92
running 92
From 92
extremely 92
spend 91
re 91
ment 91
local 91
lil 91
anime 91
count 91
tr@@ 91
track 91
ion 91
Un@@ 91
third 91
amount 91
Di@@ 91
Was 91
il 90
park 90
ppl 90
ka 90
lucky 90
except 90
mb@@ 90
ins 90
lives 90
AN 90
par@@ 90
bout 90
6@@ 90
fit 90
option 90
wat 89
os 89
MA@@ 89
min@@ 89
ea@@ 89
ons 89
Britney 89
hurt 89
Down 89
shop 89
laughing 89
figure 89
Guy 89
wit 89
Billy 89
became 89
page 88
heck 88
ar 88
Everyone 88
beach 88
class 88
dirty 88
dies 88
cost 88
ring 88
Both 88
mor@@ 88
ves 88
perfect 88
important 88
Ha@@ 87
busy 87
everybody 87
horrible 87
ked 87
ni@@ 87
actors 87
personal 87
ying 87
cent 87
Red 87
havent 87
ard 87
Beatles 87
ah 87
stuck 87
idol 87
[ 86
Up 86
aint 86
Tell 86
shit 86
fell 86
Since 86
ur@@ 86
behind 86
nose 86
message 86
spelled 86
America 86
ver 85
theme 85
coz 85
CH@@ 85
est@@ 85
limewire.com 85
Too 85
broke 85
2006 85
quit 85
ics 85
har@@ 85
Make 85
mon@@ 85
drive 85
humorous 85
24 84
Back 84
isnt 84
ipod 84
Th@@ 84
kin 84
cut 84
YES 84
ne 84
anywhere 84
fish 84
marry 84
relationship 84
humor 84
Dr. 84
ies 84
over@@ 84
bar@@ 84
item 84
ain 83
super 83
2nd 83
These 83
poor 83
j 83
tape 83
ends 83
glad 83
ki@@ 83
York 83
ad 83
myspace 83
short 83
IT@@ 82
ju@@ 82
lin@@ 82
mis@@ 82
gi@@ 82
UN@@ 82
Jolie 82
space 82
tu@@ 82
dark 82
location 82
ws 81
weight 81
Probably 81
all@@ 81
br@@ 81
whether 81
human 81
Two 81
decent 81
celebrity 81
wins 81
pu@@ 81
Search 81
post 81
Ra@@ 81
West 81
uses 81
Brad 81
themselves 81
burn 81
nope 80
OK 80
soundtrack 80
fi@@ 80
loud 80
summer 80
nu@@ 80
tion 80
silly 80
est 80
legs 80
mouth 80
surprised 80
Dave 80
Se@@ 80
op@@ 80
Does 80
Okay 80
Bar@@ 80
gives 79
we@@ 79
ina 79
tomorrow 79
step 79
Me@@ 79
ck@@ 79
Young 79
difference 79
Angelina 79
positive 79
serious 79
particular 79
90 78
speak 78
REALLY 78
wont 78
straight 78
near 78
kes 78
Buy 78
paper 78
obviously 78
im@@ 78
completely 78
Lee 78
Lord 78
spelling 78
40 78
fa@@ 78
April 78
situation 78
include 78
¨ 78
BY 77
cheese 77
HER 77
ner 77
16 77
Car@@ 77
listed 77
RO@@ 77
che@@ 77
RA@@ 77
early 77
......... 77
ball 77
Sha@@ 77
wood 77
tt@@ 77
reality 77
V 77
Give 77
lyrics.com 77
caught 77
Disney 77
size 77
ite 77
smell 77
sit 77
trust 76
ary 76
ie 76
ia 76
oo@@ 76
gra@@ 76
ing@@ 76
enter 76
stick 76
earth 76
So@@ 76
sooo 76
BEST 76
plan 76
Elvis 76
perform 76
located 76
items 76
luv 75
worked 75
exist 75
knock 75
Floyd 75
ci@@ 75
dating 75
rocks 75
hearing 75
ff@@ 75
characters 75
HIM 75
UP 75
cover 75
Hell 75
future 75
received 75
morning 74
ol@@ 74
ats 74
Jay 74
idiot 74
Nothing 74
% 74
ig@@ 74
Mike 74
blood 74
Daniel 74
Ju@@ 74
ter@@ 74
SONG 74
feet 74
bunch 74
South 74
fu@@ 74
answering 74
commercial 74
angry 74
eating 74
iPod 74
appears 74
DI@@ 73
sent 73
av@@ 73
s.@@ 73
example 73
ler 73
ff 73
cra@@ 73
nor 73
nobody 73
english 73
Christmas 73
HOT 73
AS 73
Way 73
special 73
Great 73
chick 73
worse 73
jail 73
Mary 73
file 73
Depp 73
fantastic 73
model 72
images 72
monkey 72
ep@@ 72
porn 72
excited 72
admit 72
sub@@ 72
THERE 72
JUST 72
level 72
Those 72
Superman 72
company 72
ong 72
THEM 72
team 72
possibly 72
Woman 72
May 72
cks 72
continue 72
ready 72
Da 72
World 72
< 71
media 71
sky 71
Kong 71
key 71
rec@@ 71
GOOD 71
fin@@ 71
Last 71
ence 71
hour 71
WAY 71
written 71
Smith 71
Qu@@ 71
hi 71
Wars 71
places 71
CSI 71
taking 71
X@@ 71
creepy 71
umm 71
comedy 71
wedding 71
Du@@ 71
bored 71
Hot 71
grow 71
mp3 71
inter@@ 71
mostly 70
WHO 70
duh 70
ITS 70
LE 70
dat 70
TS 70
DAY 70
obvious 70
Full 70
shut 70
several 70
match 70
highly 70
taken 70
lame 70
entire 70
ST 69
Ebay 69
meaning 69
DONT 69
picked 69
Ne@@ 69
tha 69
bottom 69
yours 69
HA@@ 69
easier 69
An 69
des 69
co 69
www.limewire.com 69
WILL 69
celebrities 69
whats 69
problems 69
art 69
gh@@ 69
ace 69
finally 69
bl@@ 69
front 69
string 69
cheap 69
performance 69
appear 69
return 69
No@@ 68
ish 68
legal 68
Plus 68
1st 68
Home 68
bs 68
High 68
featuring 68
Duff 68
Ok 68
bo 68
power 68
Ru@@ 68
ors 68
card 68
25 68
Ca@@ 68
col@@ 68
19@@ 68
mp 68
City 68
ren@@ 68
Lost 68
tom 68
wearing 68
Vegas 68
Their 68
evil 68
Peter 68
feeling 68
odd 68
Sa@@ 68
hits 68
Kate 67
Ta@@ 67
ir@@ 67
Cent 67
gas 67
ss@@ 67
ana 67
normal 67
horse 67
window 67
ve@@ 67
cast 67
riddle 67
10@@ 67
state 67
trouble 67
Bush 67
dd@@ 67
middle 67
shirt 67
provide 67
.com. 67
downloading 66
adult 66
living 66
sc@@ 66
hole 66
Simpson 66
RI@@ 66
ent@@ 66
tune 66
slow 66
Band 66
beer 66
U2 66
guessing 66
sk@@ 66
Man@@ 66
SU@@ 66
LA@@ 66
ft 66
Fa@@ 66
role 66
Unfortunately 66
decide 66
Spears 66
dreams 66
save 66
lose 66
wondering 66
keeps 66
outside 66
ders 66
Use 66
desire 66
cousin 66
yellow 66
cents 65
tour 65
gun 65
Go@@ 65
tired 65
obsessed 65
cli@@ 65
Bill 65
somebody 65
Actually 65
Hi 65
and@@ 65
ul@@ 65
ions 65
Jennifer 65
tall 65
Kevin 65
Sp@@ 65
Jo@@ 65
ny 65
imagine 65
complete 65
attempt 65
La@@ 64
WOULD 64
mood 64
Van 64
Tupac 64
considered 64
ran@@ 64
ther 64
tree 64
nine 64
ness 64
Carey 64
bigger 64
TH@@ 64
LO@@ 64
junk 64
cre@@ 64
unattractive 64
driving 64
cow 64
throw 64
thin 64
handsome 64
ates 63
HO@@ 63
IM 63
Happy 63
EVER 63
fla@@ 63
fo@@ 63
sion 63
following 63
wouldnt 63
AM 63
LE@@ 63
FROM 63
pr@@ 63
street 63
pass 63
strong 62
Dead 62
cr@@ 62
TA@@ 62
14 62
FA@@ 62
Batman 62
00 62
nie 62
pri@@ 62
DA@@ 62
Linkin 62
sucked 62
Mariah 62
Heart 62
mes 62
mil@@ 62
sti@@ 62
Old 62
drama 62
seriously 62
lets 62
onto 62
moon 62
code 62
Listen 62
Beyonce 62
locate 62
zy 61
AL@@ 61
leg 61
catch 61
Ka@@ 61
individual 61
Ri@@ 61
teeth 61
mention 61
pping 61
LY 61
truly 61
main 61
nasty 61
tt 61
related 61
cross 61
EL@@ 61
non 61
fil@@ 61
ce 61
1.@@ 61
honestly 61
kicked 61
Right 61
truth 61
gre@@ 61
created 61
Blue 61
pink 61
Many 61
twenty 61
Nick 60
KING 60
law 60
button 60
Club 60
ator 60
horror 60
gross 60
screen 60
Any 60
ay 60
Nirvana 60
paris 60
neither 60
chuck 60
OMG 60
Ryan 60
cho@@ 60
telling 60
select 60
II 60
war@@ 60
city 60
explain 60
gg@@ 60
cell 60
checked 60
ag@@ 60
Metallica 60
teen 60
BU@@ 60
brothers 60
shouldn 60
sexual 60
pe 60
ut 60
ten@@ 60
given 60
younger 60
plane 59
OR@@ 59
software 59
Ex@@ 59
sters 59
Pe@@ 59
Once 59
ex 59
eBay 59
clean 59
rappers 59
freak 59
int 59
Say 59
blind 59
chocolate 59
otherwise 59
files 59
Jesus 59
ving 59
obtain 59
ari@@ 58
Roses 58
funniest 58
correctly 58
hottest 58
None 58
iTunes 58
Remember 58
up@@ 58
ill@@ 58
period 58
Led 58
Jim 58
everywhere 58
huh 58
bra@@ 58
mentioned 58
Ice 58
practice 58
touch 58
turned 58
mm@@ 58
Scary 58
cor@@ 57
ABOUT 57
can@@ 57
70 57
anybody 57
chose 57
Ar@@ 57
expensive 57
cal@@ 57
intelligent 57
ane 57
.COM 57
entertainment 57
downloads 57
ani@@ 57
bus 57
upon 57
ens 57
Madonna 57
Could 57
floor 57
ko@@ 57
loo@@ 57
listened 57
helped 57
dress 57
ran 57
Visit 57
Miss 57
ahead 57
stated 57
entertaining 56
itunes 56
selection 56
fairly 56
any@@ 56
under@@ 56
mi 56
follow 56
ters 56
CK 56
brain 56
182 56
SOME 56
form 56
fool 56
,@@ 56
Ja@@ 56
ek 56
je@@ 56
toilet 56
bother 56
17 56
member 56
till 56
Pre@@ 56
create 56
Romance 56
confused 56
scared 56
Hu@@ 56
minute 56
asks 56
total 56
ations 56
ideas 56
giving 56
super@@ 56
tend 56
blond 56
Eyed 56
respect 56
pm 55
jealous 55
tic 55
TI@@ 55
IL@@ 55
tells 55
der@@ 55
roll 55
Mountain 55
ROCK 55
chat 55
piece 55
potter 55
land 55
Cu@@ 55
SH@@ 55
personality 55
ye 55
pl@@ 55
definately 55
Pi@@ 55
harry 55
OO@@ 55
fave 55
tie 55
grade 55
pp@@ 55
rude 55
ct 55
seasons 55
types 55
Fire 55
musicians 55
Daddy 55
learned 55
police 55
soul 55
felt 55
walking 55
idk 55
shoot 55
Keith 55
including 55
Peas 55
knowledge 55
Sometimes 55
material 55
disagree 55
greatly 55
EA@@ 54
bur@@ 54
imp@@ 54
hel@@ 54
ON@@ 54
Bruce 54
hang 54
service 54
Pretty 54
ya@@ 54
za 54
mer@@ 54
BECAUSE 54
reminds 54
ino 54
cla@@ 54
Wal@@ 54
writing 54
0 54
oo 54
Ya 54
ns 54
passed 54
Nope 54
extra 54
against 54
Moon 54
don@@ 54
row 54
2.@@ 54
stations 54
Dolls 54
Ge@@ 54
Guns 54
bird 54
options 54
y.com 54
lies 54
cold 54
Hill 54
See 54
addition 54
Panic 54
begin 54
inform 54
cap@@ 53
clothes 53
Fi@@ 53
out@@ 53
DE@@ 53
au@@ 53
kno 53
ber@@ 53
Hilary 53
Crazy 53
piano 53
wing 53
DU@@ 53
Steve 53
kelly 53
vo@@ 53
ments 53
stopped 53
starts 53
ship 53
Har@@ 53
Brothers 53
Sh@@ 53
based 53
hat 53
mess 53
lay 53
net 53
Pa@@ 53
anyways 53
ess 53
kin@@ 53
college 53
Bon 53
ability 53
forever 53
disgusting 53
Sweet 53
Run 53
dly 53
eight 53
allow 53
realize 53
purchased 53
superior 53
wild 52
star@@ 52
finished 52
Nicole 52
romantic 52
US 52
fighting 52
gle 52
finger 52
ack 52
solo 52
tabs 52
helpful 52
Album 52
loser 52
sy 52
Je@@ 52
Pitt 52
Mu@@ 52
everyday 52
gar@@ 52
21 52
California 52
Cor@@ 52
Street 52
ire 52
careful 52
Thanks 52
attend 52
honey 52
ion@@ 52
ble 52
Billie 52
speaking 52
zed 52
gentleman 52
Boo@@ 51
ali@@ 51
0@@ 51
win@@ 51
join 51
plz 51
ang@@ 51
BO@@ 51
drums 51
soooo 51
Someone 51
bri@@ 51
Pro@@ 51
dogs 51
3.@@ 51
sitting 51
.net 51
press 51
Oprah 51
involved 51
GREAT 51
price 51
Chemical 51
Hollywood 51
goin 51
details 51
bear 51
Phil 51
fan@@ 51
Ask 51
shed 51
replied 51
disc 51
needed 51
successful 51
individuals 51
United 51
credit 50
AL 50
ming 50
remake 50
downloaded 50
Nelly 50
load 50
ser@@ 50
kept 50
awful 50
az@@ 50
lea@@ 50
CE 50
WANT 50
recent 50
lat@@ 50
El@@ 50
mamma 50
ung 50
VE 50
quote 50
response 50
language 50
Unless 50
advice 50
manner 50
career 50
Kellie 50
overweight 50
possess 50
appearance 50
ach@@ 49
Am 49
lo 49
unk 49
ines 49
pain 49
PA@@ 49
wire 49
Click 49
HA 49
ot 49
somewhat 49
Prince 49
letter 49
sen@@ 49
awsome 49
mo 49
ages 49
Nu@@ 49
hopefully 49
dollar 49
doctor 49
EX@@ 49
Simon 49
hmm 49
ele@@ 49
repeat 49
Ba@@ 49
60 49
MUSIC 49
ings 49
CA@@ 49
Jerry 49
tes 49
Lol 49
pped 49
ian 49
noticed 49
MOVIE 49
comics 49
por@@ 49
Rose 49
yesterday 49
naked 49
round 49
boo@@ 49
Elliot 49
Sam 49
Mine 49
current 49
ure 49
char@@ 48
Cre@@ 48
walks 48
bow 48
romance 48
Bobby 48
smoking 48
ear 48
Didn 48
tons 48
stage 48
heads 48
Texas 48
cartoons 48
master 48
ride 48
SE 48
release 48
changed 48
SA@@ 48
forward 48
sting 48
Every 48
Grace 48
soap 48
Br@@ 48
ale 48
Dirty 48
Without 48
ang 48
fre@@ 48
HIS 48
Wanna 48
He@@ 48
mus@@ 48
twins 48
Dream 48
Live 48
ell 48
walked 48
blow 48
tions 48
account 48
ning 48
Iron 48
gon 48
Though 48
clear 48
present 48
history 48
Ha 48
ir 48
Clarkson 48
Additionally 48
wn 47
Lisa 47
biggest 47
MAN 47
ach 47
BA@@ 47
musician 47
gotten 47
Gra@@ 47
ou 47
den@@ 47
egg 47
ties 47
WHEN 47
Ste@@ 47
Metal 47
Usher 47
joking 47
wor@@ 47
Fe@@ 47
ob@@ 47
las 47
Dan 47
soo 47
DC 47
QUESTION 47
recorded 47
LA 47
Nobody 47
ANSWER 47
ga 47
HAS 47
TIME 47
beginning 47
Jovi 47
sur@@ 47
Eddie 47
clubs 47
plot 47
hump 47
dge 47
Next 47
image 47
approximately 47
ative 46
Cool 46
que 46
tickets 46
SE@@ 46
ically 46
Sk@@ 46
bb@@ 46
ty@@ 46
chi@@ 46
SP@@ 46
signs 46
daddy 46
TY 46
event 46
ical 46
di 46
ick 46
HOW 46
fr@@ 46
brilliant 46
elephant 46
ken 46
Jon 46
herself 46
March 46
cur@@ 46
pun@@ 46
west 46
remix 46
WE 46
whose 46
Hi@@ 46
Au@@ 46
ought 46
ric@@ 46
pic@@ 46
lic@@ 46
Walk 46
Pu@@ 46
Brian 46
sho@@ 46
animal 46
appealing 46
ile 46
af@@ 46
upset 46
Zac 46
Tra@@ 46
tw@@ 46
kers 46
hated 46
south 46
shoes 46
Star@@ 46
Either 46
finding 46
assume 46
rate 46
parts 46
sun 46
content 46
decision 46
previously 46
acceptable 46
CO@@ 45
99 45
field 45
cos 45
pic 45
Angel 45
board 45
Adam 45
mix 45
Friends 45
Watch 45
More 45
Sure 45
hero 45
hide 45
fuck 45
DS 45
clip 45
ho 45
cable 45
ERS 45
inst@@ 45
business 45
IC@@ 45
PS 45
Lu@@ 45
Christian 45
drinking 45
phrase 45
babies 45
dinner 45
School 45
Cha@@ 45
Wonder 45
men@@ 45
comp@@ 45
members 45
weeks 45
million 45
addicted 45
Which 45
threw 45
Per@@ 45
dra@@ 45
michael 45
Another 45
wind 45
Dance 45
Anything 45
era 45
Internet 45
Sunday 45
broken 45
comm@@ 45
id@@ 45
1980 45
scale 45
Mon@@ 45
nearly 45
Jason 45
ear@@ 45
viewed 45
unintelligent 45
Night 44
Kids 44
yep 44
SHOW 44
wolf 44
ell@@ 44
SI@@ 44
MO@@ 44
TER 44
omg 44
va 44
Artist 44
45 44
son@@ 44
superman 44
Do@@ 44
ba 44
Country 44
TE 44
oun@@ 44
actual 44
lines 44
NO@@ 44
SH 44
ved 44
Dude 44
app@@ 44
Name 44
ghost 44
photo 44
wall 44
seat 44
rip 44
lunch 44
talkin 44
bi 44
Martin 44
deep 44
ja@@ 44
queen 44
tor@@ 44
12@@ 44
Dark 44
TT@@ 44
Kid 44
00@@ 44
major 44
race 44
sleeping 44
fully 44
insane 44
unique 44
jeans 44
steal 44
term 44
concerned 44
bye 43
Thats 43
GOT 43
Three 43
TED 43
mas 43
war 43
her@@ 43
Four 43
gh 43
alternative 43
ce@@ 43
La 43
.......... 43
drummer 43
bob 43
eventually 43
Ray 43
curious 43
opera 43
IR@@ 43
vin 43
cream 43
buying 43
Kiss 43
.I 43
stri@@ 43
Want 43
whenever 43
kie 43
e.com 43
wake 43
reach 43
cake 43
ABC 43
Mor@@ 43
ther@@ 43
hav 43
Jam 43
latest 43
sum 43
LL 43
lazy 43
sounded 43
stores 43
ka@@ 43
Sean 43
WA@@ 43
ow 43
cried 43
ints 43
Charlie 43
Gwen 43
gue 43
adore 43
task 43
features 43
appropriate 43
Game 42
Over 42
lying 42
MORE 42
colors 42
ching 42
BE@@ 42
duck 42
island 42
ita 42
Gu@@ 42
7th 42
guitarist 42
Dog 42
PEOPLE 42
Saw 42
Ben@@ 42
audio 42
Dont 42
sel@@ 42
seven 42
flo@@ 42
quiet 42
swear 42
hy@@ 42
sy@@ 42
began 42
80s 42
bor@@ 42
frequently 42
Ti@@ 42
sat 42
ki 42
choices 42
crying 42
decided 42
lips 42
bang 42
den 42
double 42
source 42
CDs 42
earlier 42
numbers 42
sta@@ 42
Indian 42
Patrick 42
Days 42
position 42
blondes 42
compact 42
entirely 41
ant@@ 41
WOR@@ 41
bro@@ 41
hoo@@ 41
ist 41
deserve 41
Katie 41
Ciara 41
hott 41
tri@@ 41
els 41
MP3 41
wo@@ 41
jack 41
birth 41
ton@@ 41
Tr@@ 41
WHY 41
Yep 41
are@@ 41
VI@@ 41
Pearl 41
PO@@ 41
Season 41
Rap 41
shi@@ 41
Eric 41
foot 41
ore 41
issue 41
SAY 41
Wait 41
Punk 41
calls 41
sla@@ 41
sts 41
wasnt 41
mid 41
pizza 41
ining 41
hor@@ 41
cheat 41
ruin 41
stands 41
animals 41
Radio 41
A.@@ 41
yup 41
September 41
test 41
ground 41
Robert 41
Heaven 41
wine 41
verse 41
Very 41
my@@ 41
offer 41
Bucky 41
considering 41
vy 40
CON@@ 40
Japanese 40
sharing 40
Stone 40
nt 40
wed 40
cat@@ 40
GIRL 40
ME@@ 40
contest 40
lived 40
mel@@ 40
director 40
feels 40
incredible 40
pool 40
Chicago 40
bald 40
Personally 40
Simpsons 40
sli@@ 40
ack@@ 40
Wor@@ 40
Zeppelin 40
commercials 40
ory 40
trash 40
bay 40
recording 40
exciting 40
library 40
Lohan 40
ently 40
sisters 40
e.@@ 40
smoke 40
beats 40
q@@ 40
ately 40
pee 40
skinny 40
Death 40
hoo 40
ears 40
clothing 40
ee@@ 40
Keep 40
label 40
wer 40
Rings 40
bitch 40
shower 40
Side 40
entitled 40
GOD 40
records 40
neck 40
starring 40
Mil@@ 40
Vi@@ 40
Par@@ 40
pes 40
suit 40
Inuyasha 40
viewing 40
1990 40
merely 40
run@@ 39
Haven 39
lessons 39
sale 39
laughed 39
ath 39
rumor 39
messed 39
NA@@ 39
lover 39
Episode 39
att@@ 39
hahaha 39
act@@ 39
john 39
Bro@@ 39
............ 39
4.@@ 39
ares 39
tough 39
liking 39
5.@@ 39
tunes 39
Rolling 39
nature 39
manga 39
whoever 39
NOW 39
fingers 39
johnny 39
mistaken 39
GA@@ 39
wan@@ 39
NE@@ 39
Mark 39
cou@@ 39
chest 39
Jimmy 39
PP@@ 39
Cash 39
VERY 39
hehe 39
table 39
ess@@ 39
Las 39
ee 39
s- 39
Call 39
Yea 39
agent 39
grew 39
Know 39
ja 39
val@@ 39
ere 39
carry 39
penis 39
Maiden 39
Spanish 39
unfortunately 39
States 39
Ni@@ 39
Mom 39
foolish 39
obese 39
unaware 39
fer 38
sta 38
putting 38
couldnt 38
boat 38
tch 38
office 38
sor@@ 38
R. 38
lime 38
drop 38
Hillary 38
comic 38
sons 38
bag 38
bit@@ 38
ET 38
TH 38
quickly 38
eminem 38
IMDB 38
sometime 38
S.@@ 38
tro@@ 38
yo@@ 38
swim 38
driver 38
Kenny 38
ap@@ 38
pics 38
killing 38
lyric 38
honest 38
sty 38
Stop 38
scare 38
kins 38
rea@@ 38
Everybody 38
AC 38
dear 38
DID 38
ven@@ 38
Brother 38
van 38
SON 38
programs 38
ticket 38
accident 38
gen@@ 38
GO@@ 38
awhile 38
ID 38
acks 38
Eyes 38
cha 38
interest 38
tru@@ 38
jackson 38
Wa@@ 38
Hip 38
jump 38
actresses 38
glass 38
sto@@ 38
peace 38
pat@@ 38
fair 38
Al 38
genres 38
dri@@ 38
Wayne 38
performing 38
charge 38
Find 38
UK 38
Mandisa 38
uncertain 38
ro 37
sha 37
ol 37
Whatever 37
ko 37
stories 37
Put 37
badly 37
bomb 37
dr@@ 37
final 37
com@@ 37
thr@@ 37
hea@@ 37
basically 37
Tommy 37
disney 37
hun@@ 37
category 37
letters 37
EN 37
About 37
Stones 37
ste@@ 37
network 37
theyre 37
rhythm 37
p.@@ 37
crack 37
aired 37
Orlando 37
Sm@@ 37
previous 37
Pop 37
issues 37
acy 37
tter 37
Gr@@ 37
My@@ 37
50@@ 37
zz@@ 37
minds 37
marriage 37
Summer 37
Before 37
Spice 37
sw@@ 37
includes 37
yer 37
mistake 37
youre 37
Wedding 37
dre@@ 37
shing 37
trick 37
T.I 37
winner 37
searched 37
thy 37
avatar 37
racist 37
memory 37
voices 37
sted 37
doo 37
Snoop 37
Hol@@ 37
Myspace 37
Katherine 37
rain 37
Friday 37
shall 37
23 36
O.@@ 36
geek 36
NEW 36
Dar@@ 36
aw@@ 36
devil 36
clo@@ 36
EST 36
players 36
Sarah 36
respond 36
cowboy 36
sen 36
subject 36
Williams 36
willing 36
believed 36
Che@@ 36
OH 36
cer@@ 36
fl@@ 36
CA 36
bell 36
Jamie 36
Blink 36
THEIR 36
ended 36
Damn 36
mature 36
DO@@ 36
IM@@ 36
america 36
pull 36
Simple 36
trip 36
bathroom 36
Head 36
common 36
gorgeous 36
besides 36
SEE 36
French 36
magazines 36
Sex 36
ry@@ 36
fear 36
Hard 36
hon@@ 36
tty 36
4th 36
Te@@ 36
DOWN 36
ants 36
Something 36
NY 36
planet 36
twin 36
ford 36
camera 36
mer 36
ink 36
heaven 36
Type 36
advise 36
Tony 36
regret 36
magic 36
sa 36
results 36
quick 36
ering 36
missing 36
Saturday 36
July 36
exact 36
inv@@ 36
whom 36
Lindsay 36
sexually 36
DE 35
turns 35
eng@@ 35
thier 35
every@@ 35
candy 35
cds 35
lyric@@ 35
Roll 35
han 35
ster@@ 35
Rocky 35
included 35
cro@@ 35
spent 35
xx 35
yu@@ 35
str@@ 35
notes 35
escape 35
elle 35
1. 35
stole 35
seek 35
Boyz 35
ei@@ 35
tight 35
anna 35
shame 35
Mel@@ 35
spanish 35
dangerous 35
paint 35
research 35
negative 35
dit@@ 35
ble@@ 35
shopping 35
itch 35
Nor@@ 35
q 35
cy 35
starting 35
www.azlyrics.com 35
USA 35
church 35
Comedy 35
GE 35
dying 35
ward 35
favourite 35
mag@@ 35
some@@ 35
laid 35
ping 35
lovely 35
Definitely 35
3rd 35
Gone 35
For@@ 35
winning 35
jazz 35
preference 35
wise 35
compare 35
prison 35
Cro@@ 35
mate 35
brand 35
Halen 35
29 35
pt 35
Stu@@ 35
further 35
wears 35
wet 35
Hmm 35
trunk 35
Shakira 35
Rory 35
bisexual 35
Other 35
remove 35
recognize 35
easily 35
informed 35
require 35
fun@@ 34
jessica 34
Titanic 34
OLD 34
DA 34
techno 34
plenty 34
ep 34
christian 34
sin@@ 34
cking 34
Gre@@ 34
Lopez 34
sugar 34
delete 34
hhh 34
cards 34
gro@@ 34
19 34
SURE 34
ggy 34
rer 34
eal 34
AB@@ 34
En@@ 34
zing 34
ren 34
KS 34
lean 34
www.lyrics.com 34
TO@@ 34
everytime 34
mixed 34
hill 34
Play 34
screaming 34
freakin 34
illi@@ 34
wen 34
sat@@ 34
paul 34
theater 34
uh 34
new@@ 34
jobs 34
ena 34
off@@ 34
MI@@ 34
puts 34
dates 34
min 34
ny@@ 34
MAR@@ 34
'M 34
KE 34
Guitar 34
Code 34
Hoo@@ 34
stu@@ 34
Nice 34
eri@@ 34
ries 34
larger 34
pie 34
ious 34
bearshare 34
Depends 34
Pussycat 34
tracks 34
Efron 34
Age 34
Left 34
crush 34
cru@@ 34
calling 34
coo@@ 34
posted 34
Road 34
SO@@ 34
Min@@ 34
ICE 34
hood 34
mbs 34
witch 34
blo@@ 34
shy 34
Fat 34
Halloween 34
sp 34
Gi@@ 34
favor 34
tho@@ 34
ably 34
Moore 34
official 34
hh 34
med 34
watches 34
showing 34
spe@@ 34
tly 34
Everything 34
across 34
sold 34
plastic 34
Los 34
Goo 34
planning 34
regardless 34
ped 34
imdb.com 33
picking 33
Bra@@ 33
FREE 33
Gotta 33
groups 33
secret 33
google.com 33
Ashley 33
becoming 33
ick@@ 33
Tim 33
Col@@ 33
explo@@ 33
ils 33
our@@ 33
FIND 33
sal@@ 33
dar@@ 33
Sounds 33
Fred 33
Anyway 33
sun@@ 33
Luke 33
d.com 33
eggs 33
product 33
hardcore 33
We@@ 33
2005 33
WE@@ 33
Ke@@ 33
Cole 33
confusing 33
talks 33
lately 33
mary 33
sis 33
beauty 33
Always 33
avoid 33
Simply 33
Ki@@ 33
ality 33
hasn 33
hotter 33
Jesse 33
yell 33
PER@@ 33
Funny 33
control 33
breasts 33
push 33
indian 33
teacher 33
WHERE 33
play@@ 33
jumps 33
Amazon 33
modern 33
boss 33
normally 33
Soul 33
Again 33
topic 33
ture 33
Gibson 33
system 33
Five 33
Naruto 33
regular 33
ined 33
award 33
Fu@@ 33
keys 33
Dreams 33
Ne 33
jumped 33
building 33
Korn 33
dancer 33
cri@@ 33
skin 33
public 33
Vinci 33
vers 33
scenes 33
events 33
travel 33
unfortunate 33
poli@@ 33
finish 33
Fo@@ 33
particularly 33
Kazaa 33
hundred 33
therefore 33
incorrect 33
seemed 32
Slayer 32
.00 32
aly 32
bra 32
finale 32
via 32
safe 32
idiots 32
COM@@ 32
ene@@ 32
ction 32
math 32
drum 32
logy 32
REA@@ 32
'mon 32
lar 32
Si@@ 32
Super@@ 32
Ghost 32
REAL 32
ENT 32
PLEASE 32
mark 32
dy@@ 32
Gilmore 32
leaving 32
JA@@ 32
Bubba 32
www.imdb.com 32
meat 32
expect 32
EV@@ 32
D. 32
cash 32
ited 32
Away 32
ris 32
MAKE 32
NBC 32
flying 32
June 32
18@@ 32
Friend 32
dolls 32
disco 32
bucks 32
breaking 32
Win@@ 32
weekend 32
jus 32
joe 32
Believe 32
reply 32
bury 32
rac@@ 32
script 32
McCartney 32
ches 32
Order 32
Disco 32
ado@@ 32
Whoa 32
mobile 32
moving 32
impossible 32
hat@@ 32
itty 32
ces 32
aged 32
cted 32
Lucy 32
Ko@@ 32
windows 32
sin 32
Fox 32
balls 32
ths 32
Rob 32
teenager 32
featured 32
--- 32
sequel 32
noise 32
ser 32
ti 32
rest@@ 32
Stefani 32
Brokeback 32
Charmed 32
physically 32
holding 32
si 32
average 32
Hicks 32
ely 32
Coming 32
disappointed 32
enjoys 32
reference 32
produced 32
African 32
assist 32
lly 31
kinds 31
OTHER 31
Joey 31
BETTER 31
Dad 31
Free 31
alcohol 31
depend 31
studio 31
Rain 31
Tri@@ 31
drag 31
Kim 31
Vo@@ 31
LOOK 31
ummm 31
Gar@@ 31
Story 31
ili@@ 31
ANY 31
a.com 31
Space 31
CI@@ 31
day@@ 31
impression 31
ner@@ 31
breast 31
Guess 31
CH 31
arent 31
lookin 31
mac@@ 31
kicks 31
23@@ 31
Louie 31
Kanye 31
ffy 31
mc@@ 31
interview 31
Johnson 31
dam 31
Teen 31
itz 31
Bur@@ 31
BR@@ 31
STUPID 31
moron 31
Kill 31
FOR@@ 31
spam 31
closing 31
Bloom 31
show@@ 31
Gary 31
speed 31
notice 31
SC@@ 31
ct@@ 31
flat 31
Bam 31
antly 31
GIVE 31
Hopefully 31
MC 31
george 31
gal 31
Slim 31
reruns 31
Power 31
CK@@ 31
Anyone 31
din@@ 31
arm 31
pra@@ 31
500 31
Hop 31
asleep 31
demo 31
pin 31
Same 31
shake 31
arms 31
gir@@ 31
ppy 31
fli@@ 31
understood 31
chorus 31
Paula 31
allowed 31
Toby 31
roo@@ 31
pers 31
matters 31
ONLY 31
cancelled 31
Hoopz 31
Mother 31
Turn 31
tongue 31
Beach 31
sir 31
Favorite 31
stayed 31
Answers 31
required 31
LES 30
OU@@ 30
val 30
NAME 30
drug 30
TELL 30
keeping 30
p2p 30
PAR@@ 30
ai@@ 30
dom 30
lers 30
Looks 30
smells 30
fran@@ 30
partner 30
JO@@ 30
hello 30
classical 30
Real 30
ara 30
SS@@ 30
beyonce 30
belly 30
mon 30
TE@@ 30
15@@ 30
fourth 30
vel@@ 30
ca 30
duff 30
Holy 30
cruise 30
Holmes 30
SHOULD 30
bones 30
tab@@ 30
tin 30
truck 30
Phantom 30
squ@@ 30
end@@ 30
twelve 30
ger@@ 30
yed 30
viruses 30
brad 30
20@@ 30
gan 30
TRY 30
U.@@ 30
torrent 30
foo@@ 30
mping 30
nerves 30
.org 30
basketball 30
smile 30
loose 30
Hate 30
sey 30
text 30
Her@@ 30
Dick 30
gging 30
enjoying 30
surely 30
judge 30
nicole 30
tre@@ 30
6th 30
moved 30
Carrie 30
tattoo 30
weed 30
theaters 30
ron 30
Stay 30
signed 30
wn@@ 30
depending 30
Going 30
attracted 30
Def 30
wondered 30
tic@@ 30
P.@@ 30
Chicken 30
Randy 30
J.@@ 30
machine 30
lar@@ 30
surprise 30
Aries 30
Da@@ 30
fy 30
moves 30
28 30
ash 30
lou@@ 30
scream 30
Romeo 30
kets 30
London 30
skills 30
pper 30
fo 30
arrested 30
alien 30
specific 30
Excuse 30
Things 30
taylor 30
typing 30
Player 30
accurate 30
dig 30
fied 30
ours 30
sm@@ 30
hoping 30
robot 30
paying 30
apart 30
discovered 30
Greenday 30
Walmart 30
MySpace 30
despite 30
Lo 29
NEVER 29
lick 29
gosh 29
outta 29
URL 29
GI@@ 29
yr 29
TOO 29
ella 29
ight 29
Super 29
Tu@@ 29
ban@@ 29
ken@@ 29
Gen@@ 29
Cas@@ 29
yrs 29
natural 29
btw 29
buddy 29
S. 29
San 29
Ever 29
useful 29
sea@@ 29
simpson 29
hooked 29
kissed 29
random 29
offense 29
host 29
2. 29
................@@ 29
eps 29
ghts 29
mber 29
ham 29
thers 29
sry 29
Bang 29
earn 29
wat@@ 29
variety 29
FM 29
HEARD 29
int@@ 29
Thing 29
collection 29
qui@@ 29
HE@@ 29
disc@@ 29
........... 29
Pete 29
Stevie 29
RU@@ 29
instrument 29
ars 29
Line 29
leg@@ 29
build 29
Sli@@ 29
tel@@ 29
ater 29
pair 29
nic@@ 29
realized 29
relate 29
Gemini 29
hanging 29
Kurt 29
Mi@@ 29
Has 29
lee 29
wings 29
within 29
THEN 29
Crash 29
Deal 29
tta 29
bee 29
WWE 29
showed 29
yl@@ 29
Bl@@ 29
Ben 29
dressed 29
Na 29
fic@@ 29
VH1 29
necessary 29
runs 29
Mama 29
Easy 29
Break 29
bun@@ 29
majority 29
ise 29
Hills 29
Download 29
Ozzy 29
access 29
allows 29
sticks 29
ities 29
acquire 29
Rich 28
Sho@@ 28
gang 28
EE@@ 28
MS 28
mum 28
ffe@@ 28
boy@@ 28
mouse 28
spring 28
plain 28
gettin 28
tal@@ 28
GR@@ 28
Sugar 28
Ain 28
Joel 28
Wall 28
Windows 28
aches 28
request 28
ville 28
22 28
CAR@@ 28
FE@@ 28
messenger 28
appeared 28
War@@ 28
tab 28
log@@ 28
IL 28
N.@@ 28
ALSO 28
Ed 28
costs 28
Ab@@ 28
flowers 28
kazaa 28
swe@@ 28
mb 28
attempted 28
beatles 28
lesbian 28
you@@ 28
flash 28
hips 28
ously 28
TAL@@ 28
newspaper 28
bite 28
pulled 28
guns 28
dare 28
92 28
Apple 28
2004 28
wars 28
Yankee 28
metallica 28
oooo@@ 28
auto@@ 28
ssed 28
t.com 28
faith 28
bul@@ 28
fiction 28
cker 28
wl 28
note 28
clu@@ 28
toy 28
Fran@@ 28
hurts 28
rat 28
han@@ 28
Leo 28
myspace.com 28
back@@ 28
feed 28
Barry 28
breath 28
mountain 28
cook 28
ine@@ 28
Pri@@ 28
Angels 28
nor@@ 28
basic 28
butter 28
Think 28
ez 28
Bal@@ 28
newer 28
Master 28
accent 28
hospital 28
Momma 28
faces 28
bal@@ 28
males 28
Law 28
Emo 28
System 28
attended 28
HERE 27
rid 27
MAN@@ 27
EVERY 27
36 27
RIGHT 27
tone 27
Bunny 27
credits 27
PE@@ 27
RIC@@ 27
Isn 27
WI@@ 27
Tucker 27
Long 27
seconds 27
Cal@@ 27
amp 27
Fla@@ 27
GH@@ 27
True 27
Mad 27
counts 27
Mal@@ 27
QU@@ 27
refer 27
Wi@@ 27
Richard 27
crash 27
St. 27
pack 27
hol@@ 27
telephone 27
support 27
dumb@@ 27
gate 27
BAND 27
force 27
twist 27
Frank 27
david 27
promise 27
accept 27
Cri@@ 27
Miami 27
STA@@ 27
anger 27
AT@@ 27
Julia 27
LOT 27
bowl 27
ever@@ 27
nah 27
LAST 27
pen@@ 27
Houston 27
catchy 27
weren 27
.i 27
dated 27
donkey 27
movi@@ 27
professional 27
Spr@@ 27
closet 27
result 27
attack 27
Dogg 27
cher 27
dro@@ 27
daily 27
clearly 27
jun@@ 27
Scooby 27
Doo 27
zzy 27
welcome 27
fired 27
good@@ 27
growing 27
MUCH 27
27 27
virus 27
pimp 27
Honestly 27
nights 27
angel 27
teach 27
mmy 27
begins 27
remind 27
BAD 27
ber 27
Ive 27
hollywood 27
pro 27
tur@@ 27
impressed 27
ld 27
Chinese 27
Urban 27
fame 27
print 27
ark 27
inc@@ 27
Manson 27
inten@@ 27
tal 27
among 27
Dis@@ 27
Sawyer 27
fashion 27
Blonde 27
Godsmack 27
Candy 27
acted 27
feat 27
sight 27
starred 27
sn@@ 27
gum 27
ici@@ 27
multiple 27
unusual 27
actions 27
AS@@ 26
Ac@@ 26
wayne 26
Um 26
Fun 26
wan 26
Narnia 26
clips 26
opening 26
rapping 26
channels 26
dnt 26
bles 26
belive 26
un 26
ston 26
ra 26
concerts 26
ridiculous 26
Captain 26
van@@ 26
intended 26
producers 26
Cur@@ 26
Knock 26
lan@@ 26
rated 26
pose 26
culture 26
PRE@@ 26
GOING 26
reviews 26
ignorant 26
911 26
Na@@ 26
COME 26
AM@@ 26
Thomas 26
KA@@ 26
flick 26
Women 26
COULD 26
cky 26
Off 26
bel@@ 26
solve 26
pocket 26
Child 26
Money 26
mtv 26
draw 26
chan@@ 26
pure 26
free@@ 26
cup 26
trailer 26
Scorpio 26
lower 26
jumping 26
gged 26
tte 26
eva 26
Doors 26
reggae 26
jo 26
fee 26
illa 26
dances 26
james 26
forgotten 26
comment 26
TION 26
pul@@ 26
rumors 26
mic@@ 26
childhood 26
engaged 26
che 26
Hendrix 26
smith 26
defin@@ 26
graphic 26
knowing 26
uk 26
sum@@ 26
B.@@ 26
pan@@ 26
plu@@ 26
murder 26
she@@ 26
ctor 26
HELL 26
,000 26
Box 26
Hel@@ 26
Jane 26
down@@ 26
Lots 26
purple 26
Str@@ 26
violent 26
innocent 26
PRO@@ 26
con 26
checking 26
Were 26
Sel@@ 26
es.com 26
gar 26
ouse 26
listens 26
The@@ 26
tea 26
P. 26
Sat@@ 26
Rihanna 26
adorable 26
Cr@@ 26
AC@@ 26
feelings 26
airs 26
Blues 26
Video 26
active 26
ging 26
spin 26
Australia 26
Angeles 26
Sky 26
Wilson 26
Pen@@ 26
pole 26
Number 26
Earth 26
females 26
underneath 26
Peppers 26
marijuana 26
Kat 26
incredibly 26
despise 26
contains 26
regarding 26
utilize 26
R.@@ 25
BIG 25
chemical 25
tht 25
eg@@ 25
dick 25
corn 25
kar@@ 25
TRA@@ 25
3. 25
menu 25
ous@@ 25
chee@@ 25
goodness 25
screw 25
brains 25
wal@@ 25
Yoda 25
woo@@ 25
Ah 25
height 25
prolly 25
Fly 25
tastes 25
YA 25
lord 25
rings 25
dragon 25
ate@@ 25
Under@@ 25
ak@@ 25
ala 25
cont@@ 25
crappy 25
hehehe 25
des@@ 25
bert 25
www 25
animated 25
com 25
Read 25
hook 25
shown 25
handle 25
SS 25
dol@@ 25
C.@@ 25
pound 25
harder 25
hmmm 25
amazon 25
ANYTHING 25
realy 25
strip 25
writer 25
NI@@ 25
All@@ 25
plug 25
Lucas 25
Char@@ 25
Neither 25
sia 25
D.@@ 25
carey 25
brea@@ 25
depp 25
slipknot 25
azlyrics.com 25
Pat@@ 25
360 25
Lean 25
format 25
excuse 25
Idiot 25
FIRST 25
LET 25
mental 25
cars 25
Slipknot 25
MM@@ 25
69 25
Elton 25
target 25
steps 25
dry 25
mommy 25
BOTH 25
ffs 25
vs 25
ges 25
Alive 25
higher 25
april 25
photos 25
tis 25
lish 25
breakfast 25
loads 25
Alabama 25
mainly 25
Bird 25
Ga@@ 25
tat 25
bottle 25
dd 25
rock@@ 25
Spiderman 25
belong 25
deserves 25
Poison 25
inf@@ 25
strongly 25
ILL 25
800 25
guitars 25
hen 25
ila 25
Marilyn 25
versions 25
phe@@ 25
Ran@@ 25
Chorus 25
wers 25
phi@@ 25
Backstreet 25
unlimited 25
performer 25
bill 25
cy@@ 25
Remix 25
Barney 25
tube 25
raps 25
acts 25
Pick 25
learning 25
Joh@@ 25
Shut 25
loving 25
significant 25
Duck 25
Cry 25
vocalist 25
towards 25
Besides 25
Chili 25
Pickler 25
apply 25
effort 25
follows 25
inexpensive 25
inappropriate 25
immediately 25
attempting 25
intoxicated 25
mel 24
babe 24
Minor 24
THING 24
sending 24
bac@@ 24
PUT 24
pathetic 24
AFTER 24
loc@@ 24
Alex 24
MEAN 24
Gangsta 24
soft 24
tive 24
06 24
los 24
Lyrics 24
WH@@ 24
pac@@ 24
Dancing 24
ery 24
tattoos 24
corner 24
Jackie 24
cheaper 24
Horror 24
afford 24
Indeed 24
Ban@@ 24
river 24
hung 24
M. 24
uck 24
Magic 24
aa@@ 24
flute 24
HI@@ 24
} 24
Wish 24
exc@@ 24
newest 24
ail@@ 24
MANY 24
hilary 24
Dumb 24
Python 24
fe 24
garbage 24
BRO@@ 24
terms 24
fill 24
CHA@@ 24
tel 24
aka 24
private 24
cancer 24
social 24
gn@@ 24
Plan 24
pissed 24
clever 24
bby 24
Monkey 24
Gonna 24
ada 24
Pop@@ 24
ano 24
tra 24
according 24
dang 24
gie 24
appeal 24
hee 24
kies 24
Trek 24
DOES 24
beyond 24
attitude 24
jesus 24
usual 24
gain 24
dee 24
changes 24
jk 24
brought 24
ku@@ 24
freaking 24
vocals 24
cats 24
download.com 24
Gang 24
hammer 24
GUY 24
Stewie 24
Avril 24
fox 24
mirror 24
tun@@ 24
lon@@ 24
rule 24
warm 24
teenage 24
mal 24
lack 24
She@@ 24
eyed 24
Heights 24
Send 24
Purple 24
stripper 24
y.@@ 24
ancy 24
ref@@ 24
Peace 24
Goodbye 24
kno@@ 24
Mr 24
experienced 24
pounds 24
ladies 24
HATE 24
stalker 24
ques 24
ggle 24
selling 24
ances 24
dem 24
b4 24
T.V 24
license 24
classics 24
billy 24
cop 24
Dan@@ 24
Clark 24
War 24
faster 24
Dre 24
Mac@@ 24
blues 24
Wet 24
Mind 24
Vin 24
score 24
Jeff 24
Cold 24
Move 24
Adams 24
zero 24
Hulk 24
tor 24
rel 24
kn@@ 24
a.@@ 24
Faith 24
Scott 24
Channel 24
Blige 24
confident 24
Top 24
french 24
sions 24
fac@@ 24
iti@@ 24
couch 24
Silent 24
Musical 24
Wasn 24
youtube.com 24
acoustic 24
feature 24
dic@@ 24
Bell 24
Mel 24
North 24
ven 24
provided 24
intelligence 24
process 24
statement 24
British 24
behavior 24
discover 24
activities 24
pleasant 24
performs 24
1980s 24
assistance 24
batman 23
Final 23
ryan 23
Kno@@ 23
eh 23
Land 23
sea 23
ruined 23
urself 23
BS 23
rose 23
zi@@ 23
writers 23
fro@@ 23
hhhh 23
offensive 23
amazon.com 23
PM 23
train 23
Therefore 23
biography 23
appro@@ 23
bars 23
fix 23
Need 23
Berry 23
spo@@ 23
MOST 23
bc 23
mainstream 23
mbo 23
gangster 23
ASK 23
mexican 23
rules 23
youll 23
hates 23
Mexico 23
iting 23
mix@@ 23
Monty 23
pig 23
thin@@ 23
BACK 23
fle@@ 23
YA@@ 23
mr 23
DVDs 23
hot@@ 23
Mexican 23
wierd 23
May@@ 23
dle 23
13@@ 23
EVEN 23
sides 23
wicked 23
bath 23
len@@ 23
chicks 23
edge 23
standing 23
neighbor 23
greenday 23
Cuz 23
www.google.com 23
mes@@ 23
2003 23
100@@ 23
makeup 23
niece 23
lip 23
vir@@ 23
kool 23
pleasure 23
kate 23
guide 23
darn 23
bro 23
Allen 23
violence 23
Central 23
ami 23
Network 23
pin@@ 23
Ad@@ 23
Presley 23
producer 23
M.@@ 23
def@@ 23
rence 23
ey@@ 23
sake 23
Godfather 23
ght 23
Arnold 23
VHS 23
tan 23
freaky 23
bright 23
stones 23
raise 23
PU@@ 23
wide 23
rolling 23
UR@@ 23
irs 23
sorta 23
colle@@ 23
Hit 23
Pla@@ 23
ress 23
mur@@ 23
os@@ 23
Hands 23
slap 23
Mat@@ 23
teens 23
equal 23
cheated 23
oc@@ 23
Today 23
Really 23
Years 23
hiding 23
sports 23
meeting 23
log 23
legally 23
J. 23
nick 23
purpose 23
temp@@ 23
mal@@ 23
originally 23
minor 23
nin@@ 23
berry 23
stone 23
pts 23
imm@@ 23
zer 23
fra@@ 23
anie 23
D4L 23
Uncle 23
placed 23
homework 23
thirty 23
ocean 23
itting 23
ati@@ 23
Frankie 23
jolie 23
England 23
Hawthorne 23
believes 23
surgery 23
booty 23
fixed 23
hungry 23
Jen@@ 23
fart 23
Devil 23
kissing 23
fits 23
camp 23
Talk 23
electric 23
Blunt 23
Ricky 23
Being 23
opinions 23
Homer 23
waiter 23
returned 23
Certainly 23
Possibly 23
fifteen 23
inquire 23
Fort 22
linkin 22
LOW 22
stic 22
music.com 22
goo@@ 22
WORLD 22
proof 22
Tor@@ 22
virgo 22
washed 22
jim 22
lion 22
generation 22
titles 22
abs 22
Howard 22
Sin@@ 22
LL@@ 22
cop@@ 22
shu@@ 22
bartender 22
ene 22
ai 22
Ave 22
TING 22
shar@@ 22
Our 22
Krist@@ 22
nude 22
GRA@@ 22
nickname 22
gl@@ 22
cinema 22
head@@ 22
Drive 22
1994 22
hotel 22
Lea@@ 22
bat 22
33 22
stranger 22
LOO@@ 22
yelling 22
Tonight 22
exp@@ 22
core 22
swee@@ 22
Still 22
DY 22
KES 22
doors 22
64 22
INE 22
Trust 22
ben@@ 22
Ber@@ 22
lite 22
PLA@@ 22
ads 22
chil@@ 22
Wea@@ 22
t.@@ 22
Roberts 22
poop 22
Vampire 22
WN 22
general 22
effects 22
arri@@ 22
Crue 22
sooooo 22
Ele@@ 22
friday 22
ze@@ 22
196@@ 22
whe@@ 22
Amy 22
ids 22
Emma 22
US@@ 22
tz 22
birds 22
cus 22
Netflix 22
wrestling 22
Question 22
yard 22
bas@@ 22
fri@@ 22
Eve 22
express 22
mmmm 22
poser 22
hindi 22
goodbye 22
browse 22
ray 22
chair 22
Party 22
lights 22
Yellow 22
Carter 22
phones 22
ease 22
Wh@@ 22
study 22
boo 22
E.@@ 22
sus@@ 22
feminine 22
Songs 22
000 22
shi 22
Ten 22
woke 22
Lou@@ 22
bush 22
closer 22
ANT 22
VO@@ 22
spot 22
Robin 22
abt 22
rabbit 22
hear@@ 22
42 22
yn@@ 22
opportunity 22
pon@@ 22
korn 22
replies 22
ature 22
rey 22
tv.com 22
Mrs. 22
freaks 22
Cho@@ 22
ama 22
scre@@ 22
Kat@@ 22
constantly 22
26 22
corny 22
bla@@ 22
Mickey 22
Had 22
Darth 22
sl@@ 22
max 22
hearts 22
Media 22
Stupid 22
signing 22
del 22
remembered 22
Ed@@ 22
Zombie 22
tears 22
On@@ 22
ards 22
Josh 22
letting 22
languages 22
itch@@ 22
Can@@ 22
197@@ 22
voting 22
Might 22
underwear 22
zz 22
0s 22
inches 22
lic 22
gift 22
meal 22
wishes 22
turning 22
Bre@@ 22
Alright 22
exercise 22
woodchuck 22
Justin 22
twisted 22
lied 22
resembles 22
fifty 22
Sick 22
surprising 22
emotional 22
fifth 22
sits 22
Comp@@ 22
sentence 22
rating 22
rainbow 22
value 22
India 22
slightly 22
combination 22
possibility 22
resemble 22
apologies 22
LP 21
creative 21
WELL 21
saved 21
thousand 21
christmas 21
block 21
ino@@ 21
EAT 21
visiting 21
gold 21
Armstrong 21
Cra@@ 21
01 21
port 21
duc@@ 21
killer 21
paste 21
AND@@ 21
GE@@ 21
yan 21
bloo@@ 21
drives 21
Wolf 21
gen 21
legend 21
scam 21
wut 21
prior 21
monster 21
thoughts 21
Seinfeld 21
texas 21
Sty@@ 21
ello 21
WERE 21
ban 21
stealing 21
FI@@ 21
Santa 21
Cla@@ 21
BI@@ 21
Miller 21
mir@@ 21
ave 21
Tree 21
CHECK 21
gur@@ 21
somthing 21
leo 21
COOL 21
fucking 21
abo@@ 21
acker 21
ells 21
berg 21
Dra@@ 21
influence 21
Bearshare 21
iring 21
spider 21
religion 21
Hor@@ 21
Sara 21
Beautiful 21
britney 21
desperate 21
bon@@ 21
ji 21
Pl@@ 21
stre@@ 21
revenge 21
ROCKS 21
d.@@ 21
tion@@ 21
plac@@ 21
frog 21
ect 21
pur@@ 21
dor@@ 21
Dylan 21
hottie 21
Wake 21
mall 21
spending 21
becuase 21
vegas 21
president 21
gos 21
angelina 21
clown 21
Por@@ 21
Lin@@ 21
prob 21
Clo@@ 21
WWW.@@ 21
Motley 21
OFF 21
YING 21
DAN@@ 21
fire@@ 21
switch 21
Van@@ 21
fools 21
ww 21
sheet 21
ric 21
Survivor 21
............. 21
CT 21
HAD 21
tip 21
5th 21
split 21
spy 21
smo@@ 21
nelly 21
bugs 21
Answer 21
Napoleon 21
elvis 21
Mac 21
Imp@@ 21
gla@@ 21
UR 21
eing 21
poo@@ 21
sand 21
disco@@ 21
directly 21
hal@@ 21
ula 21
necessarily 21
sells 21
user 21
Far@@ 21
tely 21
burger 21
OOOO@@ 21
dou@@ 21
Lau@@ 21
toe 21
folks 21
canceled 21
Pat 21
boobs 21
memories 21
happening 21
folder 21
PSP 21
Sammy 21
san 21
ched 21
fruit 21
Chi@@ 21
publicity 21
theatre 21
sharp 21
Twins 21
juice 21
blog 21
Rachel 21
Especially 21
ners 21
emp@@ 21
edit 21
home@@ 21
Air 21
SIN@@ 21
bel 21
Ham@@ 21
VES 21
Fre@@ 21
tv@@ 21
Dru@@ 21
Pie 21
cing 21
Banks 21
Stewart 21
frightening 21
ler@@ 21
ddy 21
billie 21
thanx 21
apple 21
ned 21
doll 21
T.@@ 21
35 21
inted 21
Biggie 21
brings 21
parties 21
iz 21
Richie 21
ska 21
Aerosmith 21
hand@@ 21
bull 21
ben 21
tricks 21
read@@ 21
13th 21
stra@@ 21
Marley 21
Honey 21
Ala@@ 21
eds 21
clowns 21
pir@@ 21
pencil 21
cheating 21
ll@@ 21
Journey 21
delicious 21
ators 21
milk 21
oney 21
lists 21
brush 21
shoe 21
author 21
lows 21
relations 21
Cowboy 21
dev@@ 21
square 21
Exorcist 21
moments 21
success 21
Tre@@ 21
hers 21
oper@@ 21
proud 21
Olivia 21
Charlotte 21
itt@@ 21
reggaeton 21
elliot 21
ort@@ 21
added 21
Austin 21
Cena 21
Eye 21
yelled 21
Pr@@ 21
arrive 21
admire 21
dependent 21
wealthy 21
deceased 21
possession 21
Attempt 21
unpleasant 21
concerning 21
preferred 21
loss 20
pp 20
HOPE 20
cleaning 20
cookies 20
rin@@ 20
bb 20
W.@@ 20
som 20
RY 20
cookie 20
Cy@@ 20
peer 20
nuts 20
Nine 20
dudes 20
Anna 20
THER 20
headed 20
Wind 20
parked 20
pod 20
Ball 20
MON@@ 20
pain@@ 20
Shi@@ 20
quest 20
Picture 20
DEAD 20
ratings 20
sources 20
Shop 20
blast 20
Lady 20
GREEN 20
Lam@@ 20
jesse 20
selves 20
Cop@@ 20
HEY 20
40@@ 20
oldies 20
hilton 20
t. 20
fore@@ 20
teenagers 20
removed 20
Bon@@ 20
rist 20
GG@@ 20
FUNNY 20
lia 20
grass 20
jay 20
W. 20
Santana 20
rack 20
SNL 20
codes 20
ANY@@ 20
clarkson 20
burst 20
200 20
whore 20
rite 20
baseball 20
mmm 20
bin 20
Children 20
weak 20
pal@@ 20
aring 20
highest 20
bloody 20
Sc@@ 20
ged 20
MP@@ 20
dish 20
whi@@ 20
Buffy 20
Shrek 20
MA 20
Woo@@ 20
CALLED 20
JU@@ 20
pitt 20
eve 20
laughter 20
Mad@@ 20
Zo@@ 20
speech 20
Place 20
Grey 20
HEA@@ 20
leaves 20
Lion 20
30@@ 20
Ipod 20
ket 20
pus@@ 20
Fantasy 20
fel@@ 20
GS 20
Flash 20
backwards 20
bf 20
somethin 20
Ver@@ 20
keith 20
advertising 20
Sto@@ 20
walmart 20
arts 20
but@@ 20
32 20
inuyasha 20
hair@@ 20
tables 20
sets 20
finds 20
Cause 20
smarter 20
links 20
relaxing 20
tics 20
install 20
ented 20
Obviously 20
aqu@@ 20
T. 20
Soon 20
nails 20
aries 20
thu@@ 20
ead 20
MUST 20
www.myspace.com 20
restaurant 20
ori@@ 20
t.v 20
mul@@ 20
volume 20
Million 20
night@@ 20
Haha 20
cher@@ 20
forced 20
ingo 20
joy 20
posters 20
market 20
demand 20
mini 20
Irish 20
yahoo@@ 20
Bi@@ 20
De 20
BB@@ 20
deserved 20
Snow 20
produce 20
Operation 20
Diesel 20
ander 20
sher 20
brunette 20
ware 20
Hall 20
Alba 20
Bryan 20
haired 20
conversation 20
Gla@@ 20
ade 20
ills 20
Room 20
screamed 20
Wicked 20
yells 20
Laffy 20
Taffy 20
Doo@@ 20
squirrel 20
Mus@@ 20
bodies 20
falling 20
belief 20
false 20
Sta@@ 20
Rejects 20
yd 20
Uh 20
Choose 20
horn 20
Fear 20
reads 20
1970 20
November 20
dramatic 20
anc@@ 20
Groove 20
ket@@ 20
anti 20
Father 20
mini@@ 20
gentlemen 20
calm 20
blah 20
Mis@@ 20
Or@@ 20
News 20
mers 20
summ@@ 20
tran@@ 20
Spongebob 20
Raven 20
Sandler 20
eli@@ 20
Dem 20
wore 20
depressed 20
Christina 20
unlike 20
improve 20
understanding 20
device 20
eleven 20
stance 20
Kingdom 20
examples 20
occur 20
affection 20
impressive 20
Regardless 20
ams 19
bab@@ 19
USE 19
GER 19
Rocket 19
forth 19
del@@ 19
rist@@ 19
Beast 19
rs 19
treat 19
END 19
Val@@ 19
mmer 19
pigs 19
CT@@ 19
bop 19
agre@@ 19
ssive 19
Dragon 19
vs. 19
kit 19
pervert 19
dirt 19
Ric@@ 19
extent 19
banned 19
Out@@ 19
insult 19
cle@@ 19
sal 19
cc@@ 19
PI@@ 19
animation 19
CHRIS 19
Jer@@ 19
MU@@ 19
Stick 19
kim 19
japanese 19
stinks 19
KY 19
Des@@ 19
anytime 19
jury 19
Hmmm 19
BOO@@ 19
snow 19
mile 19
duct 19
38 19
celebs 19
sni@@ 19
thunder 19
lint 19
budget 19
bubble 19
www.m@@ 19
direc@@ 19
gy 19
Saving 19
ego 19
ppin 19
tiger 19
worthy 19
Notebook 19
wanting 19
8th 19
Alien 19
Flatts 19
DD@@ 19
background 19
spears 19
madonna 19
ay@@ 19
shops 19
GOO@@ 19
198@@ 19
hou@@ 19
34 19
Loves 19
bees 19
lan 19
compatible 19
Desperate 19
Housewives 19
WHITE 19
ink@@ 19
ICK 19
docu@@ 19
IV 19
NE 19
Hon@@ 19
bridge 19
ashley 19
usher 19
www.download.com 19
beast 19
cuter 19
yp@@ 19
mariah 19
opposite 19
YO@@ 19
Brooks 19
ea 19
Wat@@ 19
redneck 19
retired 19
san@@ 19
org@@ 19
jam 19
vampire 19
sive 19
III 19
x.com 19
sam 19
dam@@ 19
que@@ 19
Hammer 19
clock 19
central 19
47 19
aa 19
speakers 19
vin@@ 19
fairy 19
york 19
celeb 19
key@@ 19
gers 19
styles 19
goth 19
speci@@ 19
apples 19
Sun 19
xy 19
flower 19
haha@@ 19
spoiled 19
stru@@ 19
Times 19
reali@@ 19
Terry 19
ELL@@ 19
TT 19
li 19
copies 19
NC 19
dun@@ 19
eats 19
ook 19
losing 19
comb@@ 19
lock 19
amer@@ 19
FU@@ 19
mos 19
ond 19
od 19
fon@@ 19
THOUGHT 19
jerk 19
drinks 19
ITY 19
cliff 19
zo@@ 19
sil@@ 19
trans@@ 19
Kir@@ 19
hurry 19
ffer 19
india 19
HAPPY 19
Yang 19
rubber 19
2002 19
Christopher 19
ood 19
Mandy 19
ald 19
nes 19
dir@@ 19
dec@@ 19
Craig 19
1000 19
conc@@ 19
.I.@@ 19
Holly 19
Comics 19
OC 19
Aniston 19
Sonny 19
industry 19
Samurai 19
aters 19
ghetto 19
Buddy 19
talked 19
Jessie 19
Vince 19
typically 19
stink 19
princess 19
25@@ 19
RED 19
Beauty 19
see@@ 19
upload 19
failed 19
jan@@ 19
Virgin 19
Sleepy 19
Priest 19
itted 19
toss 19
circus 19
ually 19
Satan 19
net@@ 19
Oscar 19
definition 19
ope 19
comments 19
dj 19
comfortable 19
fortune 19
ups 19
tryin 19
theirs 19
ttes 19
tapes 19
Bri@@ 19
Nas 19
Neil 19
gor@@ 19
MSN 19
aling 19
remo@@ 19
Tw@@ 19
Ocean 19
encourage 19
bank 19
genius 19
Mart 19
Lane 19
broadcast 19
45@@ 19
Elliott 19
youth 19
inclined 19
Alice 19
vocal 19
ask.com 19
provides 19
filled 19
Eat 19
coun@@ 19
aspect 19
Wednesday 19
cen@@ 19
Lie 19
Puerto 19
Prison 19
Torrent 19
Wire 19
additional 19
intercourse 19
chin 18
yy@@ 18
YEARS 18
LU@@ 18
seventeen 18
suggestions 18
Rol@@ 18
audience 18
lum 18
cer 18
filming 18
Bugs 18
HARD 18
mothers 18
y- 18
properly 18
mp3@@ 18
Stern 18
Living 18
LONG 18
wasted 18
Leave 18
Die 18
EAR 18
Dear 18
ple 18
rell 18
Com@@ 18
95 18
clues 18
alphabet 18
sponge 18
Movies 18
----@@ 18
Fan@@ 18
HOO@@ 18
Ron 18
Gun 18
Forever 18
Ph@@ 18
kly 18
Jet 18
ticketmaster.com 18
cops 18
Att@@ 18
ig 18
costume 18
high@@ 18
that@@ 18
Jojo 18
sync 18
Art 18
ross 18
carrie 18
community 18
LY@@ 18
drawn 18
ski 18
sle@@ 18
banana 18
According 18
range 18
VE@@ 18
CLU@@ 18
vari@@ 18
underground 18
KED 18
humans 18
Evil 18
rhymes 18
BRA@@ 18
Us 18
ures 18
iny 18
NIGHT 18
dun 18
11@@ 18
LISTEN 18
naughty 18
fresh 18
dden 18
NOTHING 18
coolest 18
indie 18
Fri@@ 18
65 18
stor@@ 18
empty 18
nation 18
Spike 18
Anime 18
shadow 18
baby@@ 18
orn 18
illy 18
viol@@ 18
mike 18
Coldplay 18
Six 18
conver@@ 18
Umm 18
gemini 18
SING 18
awards 18
Hanks 18
guilty 18
shave 18
angel@@ 18
thru 18
A. 18
mr. 18
C. 18
kid@@ 18
models 18
guard 18
sn 18
input 18
barely 18
drove 18
Ramones 18
til 18
ents 18
us.com 18
DOWNLOAD 18
Pac@@ 18
ool 18
nin 18
TAKE 18
pisces 18
Jimi 18
OVER 18
blew 18
Cube 18
sucking 18
199@@ 18
homepage 18
laws 18
nee@@ 18
music@@ 18
Phil@@ 18
dream@@ 18
MOM 18
cting 18
previews 18
nd 18
GU@@ 18
Bo 18
GAY 18
relationships 18
virgin 18
tman 18
thi@@ 18
lindsay 18
abilities 18
beleive 18
SOMETHING 18
iled 18
Hood 18
thick 18
maker 18
pirates 18
grown 18
cts 18
DIE 18
Dollar 18
chinese 18
Wee@@ 18
Act 18
government 18
bullet 18
pla@@ 18
poker 18
identify 18
shirts 18
ppet 18
pages 18
Mommy 18
lmao 18
ney 18
moon@@ 18
Wild 18
suff@@ 18
novel 18
cab@@ 18
tale 18
connection 18
Monster 18
headphones 18
80@@ 18
far@@ 18
YEAH 18
article 18
rious 18
completed 18
DIDN 18
oil 18
ites 18
Rod 18
Sister 18
Jen 18
Ooo@@ 18
prove 18
Kra@@ 18
Duke 18
Hindi 18
test@@ 18
Won 18
ona 18
Hea@@ 18
weather 18
som@@ 18
wrestler 18
Date 18
cared 18
equally 18
Shawn 18
remain 18
coast 18
blame 18
BET 18
Magazine 18
traffic 18
needle 18
'ma 18
Freddy 18
gee 18
nail 18
east 18
colored 18
dea@@ 18
pick@@ 18
Jake 18
selfish 18
Cha 18
bump 18
Powter 18
staying 18
az 18
Margera 18
studios 18
amusement 18
Academy 18
burning 18
nell 18
Chad 18
Travis 18
Sun@@ 18
Lover 18
Cap@@ 18
tones 18
Should 18
query 18
East 18
fellow 18
pc 18
Humps 18
relax 18
coffee 18
nick@@ 18
Sing 18
Nickelback 18
thoroughly 18
Pro 18
Anthony 18
B5 18
Mean 18
instant 18
bble 18
Absolutely 18
equ@@ 18
Sam@@ 18
Second 18
joined 18
intend 18
competition 18
offers 18
pays 18
gasoline 18
continues 18
instru@@ 18
occasionally 18
followed 18
accomplish 18
adequate 18
capable 18
Similar 18
choosing 18
portrayed 18
Conan 17
Anyways 17
MAYBE 17
girl@@ 17
thay 17
LIL 17
bruce 17
rend 17
Whe@@ 17
icks 17
Mouse 17
preview 17
louie 17
funky 17
watchin 17
deci@@ 17
Bing 17
OUS 17
cock 17
orange 17
Louis 17
remains 17
states 17
Ashlee 17
strings 17
Tam@@ 17
Ter@@ 17
Wo@@ 17
jam@@ 17
kong 17
pas@@ 17
becomes 17
SONGS 17
Akon 17
ICAL 17
usa 17
gin@@ 17
bus@@ 17
onic 17
clarinet 17
deals 17
k.@@ 17
peter 17
dan@@ 17
kyo 17
75 17
equals 17
real@@ 17
MIN@@ 17
Charles 17
thead 17
length 17
SY@@ 17
rocked 17
Been 17
gangsta 17
outs 17
Knight 17
Am@@ 17
daniel 17
Around 17
doin 17
2pac 17
pse 17
dat@@ 17
Gump 17
pa 17
Rascal 17
Cinderella 17
ni 17
happ@@ 17
PLAY 17
shia 17
TON 17
ero@@ 17
too@@ 17
owned 17
wil@@ 17
Pirates 17
dest 17
jones 17
sean 17
Aqua 17
eves 17
lottery 17
kir@@ 17
wa 17
SOME@@ 17
70s 17
listings 17
blu@@ 17
HOUSE 17
Sal@@ 17
wud 17
song@@ 17
uncredited 17
now@@ 17
production 17
Ford 17
divorced 17
Yup 17
Degrassi 17
curse 17
center 17
imagination 17
goofy 17
ELL 17
MIGHT 17
rooster 17
alike 17
maid 17
millionaire 17
Crow 17
Clapton 17
lake 17
Reeves 17
morpheus 17
domin@@ 17
spread 17
PIC@@ 17
ust 17
sees 17
graph 17
it.@@ 17
Shot 17
Dynamite 17
horoscopes 17
officer 17
replace 17
Scarface 17
Dennis 17
Lavigne 17
grandmother 17
pil@@ 17
reli@@ 17
playlist 17
PRETTY 17
Hur@@ 17
bowling 17
cave 17
LITTLE 17
moore 17
Diddy 17
peas 17
humps 17
VOTE 17
CANT 17
class@@ 17
Aaron 17
vision 17
DER 17
Blo@@ 17
funnier 17
Han@@ 17
jects 17
katie 17
poem 17
yeh 17
whos 17
prince 17
fed 17
ale@@ 17
Amazing 17
Axl 17
vel 17
Ska 17
Pic@@ 17
Rea@@ 17
glasses 17
mit 17
uring 17
wee@@ 17
yl 17
Cobain 17
Libra 17
peoples 17
tail 17
represents 17
rif@@ 17
science 17
Alex@@ 17
Start 17
solved 17
vo 17
keyboard 17
dey 17
ury 17
Fender 17
reunion 17
blink 17
Golden 17
Run@@ 17
yah 17
fi 17
SHO@@ 17
Shake 17
Mister 17
sses 17
Bel@@ 17
YS 17
wheel 17
workers 17
changing 17
def 17
Monroe 17
BOY 17
epi@@ 17
acci@@ 17
TU@@ 17
iron 17
kevin 17
Seth 17
nat@@ 17
jelly 17
tin@@ 17
JE@@ 17
AI 17
Bas@@ 17
Lev@@ 17
Open 17
K. 17
hah 17
Shar@@ 17
dope 17
LEA@@ 17
nano 17
Kyle 17
wards 17
---@@ 17
products 17
pawn 17
Wood 17
navigate 17
crossed 17
EP 17
Sexy 17
toast 17
ste 17
unlikely 17
Kar@@ 17
'RE 17
plan@@ 17
Looking 17
Eva 17
1,@@ 17
tap 17
herd 17
tips 17
Pal@@ 17
refers 17
Itunes 17
Water 17
ima 17
cin@@ 17
Smurf 17
ringtone 17
casting 17
cia 17
Janet 17
Jo 17
Bit 17
Ross 17
Murphy 17
pity 17
panic 17
mean@@ 17
Aquarius 17
identity 17
ices 17
Hold 17
non@@ 17
stin@@ 17
Cartoon 17
focus 17
pray 17
Asian 17
Ul@@ 17
accomp@@ 17
Shor@@ 17
hosts 17
salsa 17
Reese 17
Hustle 17
Tru@@ 17
airing 17
dering 17
bits 17
Enjoy 17
Weird 17
thirteen 17
chords 17
schedule 17
origin@@ 17
98 17
Flav 17
Champ@@ 17
enti@@ 17
Jade 17
shocked 17
tain 17
Virgo 17
oned 17
collect 17
Spar@@ 17
Elizabeth 17
adults 17
stomach 17
contract 17
existed 17
comical 17
promiscuous 17
approve 17
vehicle 17
discussing 17
referred 17
pornography 17
outcome 17
remaining 16
AWESOME 16
loses 16
| 16
dictionary 16
Ann 16
Murray 16
300 16
chy 16
rape 16
Walker 16
buck 16
Ethan 16
brian 16
Hits 16
falls 16
health 16
Vader 16
120 16
Birthday 16
Used 16
Breakfast 16
GIRLS 16
Year 16
tah 16
nirvana 16
gig 16
ef 16
ye@@ 16
Gimme 16
engines 16
Enough 16
Sabbath 16
Aaliyah 16
taught 16
disorder 16
predictable 16
SUCKS 16
ALL@@ 16
Finally 16
Cat 16
Vincent 16
airplane 16
crowd 16
dvds 16
sence 16
unt 16
Li 16
THOSE 16
california 16
Cam@@ 16
ich 16
ition 16
cul@@ 16
Yo@@ 16
31 16
stal 16
EST@@ 16
tting 16
apparently 16
Getting 16
Khan 16
venture 16
ww@@ 16
wea@@ 16
soooooo 16
faves 16
ANS 16
Relient 16
ane@@ 16
PAN@@ 16
Ill 16
CEN@@ 16
SCHOOL 16
grandma 16
jer@@ 16
Fun@@ 16
illed 16
DER@@ 16
CU@@ 16
charlotte 16
holes 16
laughs 16
dedicated 16
G.@@ 16
mani@@ 16
ppo@@ 16
seventh 16
Mag@@ 16
of@@ 16
saving 16
Under 16
jennifer 16
Radcliffe 16
250 16
List 16
simpsons 16
Nah 16
report 16
Grease 16
Pizza 16
Pus@@ 16
treats 16
Id 16
Garth 16
mps 16
bies 16
Tur@@ 16
Series 16
spirit 16
gger 16
China 16
PC 16
jason 16
ue 16
Dean 16
recomm@@ 16
ank 16
BEEN 16
students 16
gan@@ 16
Henry 16
Son 16
suc@@ 16
Mafia 16
rick 16
fred 16
charmed 16
Shady 16
OUR 16
urban 16
vol@@ 16
NEXT 16
Wolverine 16
debut 16
ys@@ 16
screwed 16
fs 16
rocker 16
spit 16
papa 16
Hostel 16
closed 16
Them 16
Chocolate 16
sadly 16
comple@@ 16
awkward 16
electronic 16
wie 16
pol@@ 16
Face 16
Office 16
one@@ 16
comin 16
Half 16
Sinatra 16
KISS 16
kel@@ 16
Tuesday 16
sab@@ 16
vac@@ 16
soup 16
indi@@ 16
ica 16
worker 16
dio@@ 16
Troy 16
ound 16
sex@@ 16
MP 16
Lime 16
craft 16
anorexic 16
tar@@ 16
worlds 16
Stephen 16
hug 16
elderly 16
lohan 16
mly 16
influ@@ 16
ried 16
turtle 16
Ying 16
Enter 16
EL 16
Em 16
Abdul 16
suicide 16
44 16
Leno 16
Boulevard 16
physical 16
BEFORE 16
led@@ 16
battle 16
Tough 16
67 16
sixth 16
ional 16
2001 16
Drew 16
LOVED 16
E. 16
spin@@ 16
tro 16
Tal@@ 16
Triple 16
1983 16
54 16
base 16
rockers 16
SK@@ 16
covered 16
ets 16
WAL@@ 16
gly 16
snake 16
shots 16
cheats 16
direct 16
pressure 16
£ 16
43 16
Wil@@ 16
pid 16
EEP 16
disliked 16
ender 16
85 16
Fol@@ 16
DUH 16
fishing 16
pointless 16
stress 16
ush 16
shipping 16
reported 16
dence 16
10.@@ 16
mped 16
shiny 16
Ya@@ 16
Keanu 16
screen@@ 16
god@@ 16
bone 16
lonely 16
Monica 16
Christ@@ 16
Play@@ 16
punch 16
Sab@@ 16
pieces 16
practicing 16
photo@@ 16
tically 16
4. 16
rie 16
ster.com 16
stan@@ 16
Warner 16
Karen 16
aside 16
ader 16
wives 16
box@@ 16
discuss 16
believable 16
ide@@ 16
Records 16
Ellen 16
riddles 16
adam 16
flow 16
Brenna 16
gender 16
hippie 16
energy 16
Touch 16
touring 16
Bond 16
www.yahoo.com 16
Holiday 16
grav@@ 16
celebr@@ 16
court 16
Rick 16
allo@@ 16
chances 16
exists 16
Logan 16
thro@@ 16
BB 16
swimming 16
yal 16
peri@@ 16
You@@ 16
reasons 16
Pad@@ 16
Amazon.com 16
method 16
Pisces 16
scoo@@ 16
locked 16
ron@@ 16
itself 16
ero 16
Wal 16
iz@@ 16
Rock@@ 16
sport 16
HH@@ 16
Cru@@ 16
Watching 16
Poop 16
Matt 16
Air@@ 16
Heavy 16
eable 16
acid 16
flash@@ 16
wns 16
grab 16
peppers 16
contain 16
Images 16
www.youtube.com 16
Deep 16
visited 16
zoo 16
data 16
sely 16
Lose 16
Him 16
uss 16
101 16
Jess 16
chosen 16
deaf 16
ast 16
legit 16
beep 16
Yet 16
Bran@@ 16
Kaz@@ 16
pleased 16
confirm 16
effective 16
consume 16
concern 16
exceptional 16
determine 16
participate 16
Purchase 16
caused 16
purchasing 16
Despite 16
August 16
roses 15
Mic@@ 15
skip 15
Rest 15
posting 15
MADE 15
Rush 15
slut 15
Dam@@ 15
Greatest 15
reme@@ 15
ONG 15
ooo 15
WHOLE 15
grand@@ 15
MB@@ 15
doc 15
Together 15
whisky 15
detective 15
atory 15
ARY 15
THATS 15
CE@@ 15
zodiac 15
ttin 15
sear@@ 15
Mam@@ 15
football 15
psycho@@ 15
WAR@@ 15
aliens 15
HP 15
avid 15
Earl 15
discs 15
overall 15
knocked 15
bin@@ 15
kills 15
Fur@@ 15
em@@ 15
lighter 15
garden 15
ement 15
tupac 15
81 15
El 15
ck.com 15
Indi@@ 15
H.@@ 15
ace@@ 15
flicks 15
mans 15
Amanda 15
shoulder 15
ual 15
Mer@@ 15
Dumber 15
NG 15
g.@@ 15
introduced 15
Mul@@ 15
flu@@ 15
ences 15
HOU@@ 15
elsewhere 15
Force 15
WISH 15
hitting 15
fret 15
PH@@ 15
Dana 15
German 15
Charlize 15
jerry 15
complicated 15
tit@@ 15
Clar@@ 15
cakes 15
FRIEND 15
mart 15
kicking 15
Sue 15
c.@@ 15
Forrest 15
sunday 15
march 15
TYPE 15
launch 15
TTER 15
Larry 15
bastard 15
Sailor 15
tou@@ 15
wagon 15
sued 15
Sad@@ 15
amed 15
grey 15
ciara 15
wtf 15
gi 15
Kagome 15
Rid@@ 15
naw 15
aquarius 15
BTW 15
someday 15
At@@ 15
goat 15
o.@@ 15
ooth 15
FULL 15
een 15
Eagles 15
Q@@ 15
priest 15
butts 15
Doubt 15
Federline 15
fanta@@ 15
boun@@ 15
psychic 15
persons 15
absolute 15
mesh 15
ann 15
CLA@@ 15
Crosby 15
pre 15
Ali@@ 15
person@@ 15
mor 15
ese 15
beg 15
yea@@ 15
shape 15
restaurants 15
lize 15
HUGE 15
Revenge 15
fer@@ 15
Gosh 15
Boogie 15
Ride 15
CAUSE 15
suspen@@ 15
Much 15
HEAR 15
Such 15
Cab@@ 15
poorly 15
eni@@ 15
fty 15
Racer 15
tries 15
ah@@ 15
mag 15
ED@@ 15
daughters 15
silver 15
sit@@ 15
Lan@@ 15
bell@@ 15
chain 15
Close 15
decade 15
SG 15
Crashers 15
magical 15
flies 15
Andy 15
Letterman 15
ALOT 15
October 15
champ@@ 15
Ser@@ 15
fantasy 15
le.com 15
ALI@@ 15
666 15
S.O.@@ 15
promo@@ 15
invited 15
Bedingfield 15
bly 15
laun@@ 15
backstage 15
neat 15
skating 15
zac 15
Boo 15
programming 15
sand@@ 15
gru@@ 15
Buble 15
returns 15
aga@@ 15
notebook 15
dave 15
Ludacris 15
talents 15
TI 15
Les 15
Lonely 15
.lol 15
drown 15
Thriller 15
download@@ 15
Save 15
Watson 15
dreaming 15
mou@@ 15
LOST 15
zip 15
rob 15
gospel 15
Grand 15
MENT 15
shouldnt 15
1988 15
Panther 15
lane 15
Wing 15
rank 15
Sla@@ 15
Cody 15
2007 15
emotions 15
question@@ 15
uns 15
funeral 15
Foo 15
yu 15
haircut 15
listing 15
ABLE 15
dig@@ 15
fu 15
Ring 15
Whitney 15
mole@@ 15
vent@@ 15
rerun 15
Heather 15
hadn 15
cease 15
perfectly 15
Bring 15
Killers 15
.com.@@ 15
silent 15
becuz 15
copied 15
Fer@@ 15
COUNTRY 15
Sur@@ 15
Twisted 15
icas 15
tals 15
riding 15
rat@@ 15
EACH 15
Produc@@ 15
Bear 15
Natasha 15
katherine 15
armed 15
rely 15
swing 15
Jack@@ 15
responded 15
THAN@@ 15
iling 15
destination 15
shark 15
FO@@ 15
Robbie 15
Gates 15
nam@@ 15
throat 15
spon@@ 15
forty 15
McGraw 15
spar@@ 15
cheesy 15
SICK 15
suppor@@ 15
kki 15
sooner 15
tedly 15
oud 15
Light 15
Awards 15
typical 15
afterwards 15
voca@@ 15
Son@@ 15
addicting 15
Vol@@ 15
bling 15
Eight 15
Mars 15
uni@@ 15
Grandpa 15
mission 15
mediocre 15
Better 15
tan@@ 15
Ly@@ 15
gri@@ 15
teen@@ 15
SEX 15
connect 15
tee 15
Blockbuster 15
eaten 15
tual 15
sca@@ 15
pussy 15
karaoke 15
Ty@@ 15
direction 15
Swim 15
Scream 15
Carl 15
ignore 15
impro@@ 15
prom 15
Bay 15
Disturbed 15
sauce 15
Fra@@ 15
repeatedly 15
nonsense 15
Ai@@ 15
Clown 15
thus 15
Doc 15
wishing 15
independent 15
Emerald 15
sist 15
counting 15
WORK 15
fighter 15
gang@@ 15
Beverly 15
Eng@@ 15
Osbourne 15
ali 15
entered 15
Bloo@@ 15
boot 15
Loved 15
suggestion 15
Thursday 15
grammar 15
enjoyment 15
Television 15
lacking 15
proper 15
tool 15
inci@@ 15
instance 15
Limewire.com 15
aff@@ 15
Hips 15
pal 15
Joan 15
object 15
occasion 15
February 15
witnessed 15
standards 15
backside 15
observe 15
difficulty 15
skilled 15
inquiring 15
esca@@ 14
brain@@ 14
beli@@ 14
yy 14
Fish 14
Ol@@ 14
Dur@@ 14
longest 14
MEN@@ 14
remeber 14
SAID 14
ERRY 14
Sir 14
Mix 14
Hear 14
Mighty 14
Jazz 14
CRE@@ 14
Foo@@ 14
ato@@ 14
EY 14
whine 14
Ritchie 14
AGE 14
Fiction 14
Benny 14
Nails 14
YEAR 14
taker 14
quarter 14
Ve@@ 14
Spider 14
Toronto 14
ggles 14
forum 14
golden 14
ultimate 14
seed 14
elly 14
jacket 14
Gay 14
Canadian 14
martin 14
guest 14
Cage 14
vie@@ 14
SM@@ 14
FR@@ 14
urs 14
wling 14
Apparently 14
ism 14
july 14
picks 14
KC 14
Third 14
tical 14
tered 14
STAND 14
manson 14
chea@@ 14
commit 14
OP@@ 14
mmys 14
Germany 14
kitchen 14
s.net 14
66 14
goog@@ 14
cus@@ 14
Theron 14
Ven@@ 14
lig@@ 14
STAR 14
HIGH 14
Forget 14
NEED 14
useless 14
Lad@@ 14
FUL 14
ele 14
oranges 14
uncle 14
SAME 14
ku 14
DING 14
vest@@ 14
addict 14
7.@@ 14
L.@@ 14
messages 14
etly 14
gest 14
harmon@@ 14
snoop 14
WATCH 14
settings 14
LESS 14
Blood 14
Talking 14
september 14
Keys 14
hhhhhhhh@@ 14
sitcom 14
Kind 14
sof@@ 14
eller 14
Yu 14
affe@@ 14
kil@@ 14
WS 14
kanye 14
KIN 14
sequels 14
HOR@@ 14
sue 14
typed 14
vation 14
theory 14
Curtis 14
repeating 14
ille 14
1982 14
SVU 14
human@@ 14
z.com 14
GHT 14
leader 14
bucket 14
monkeys 14
VEN 14
Arthur 14
hose 14
astrology 14
blunt 14
pen 14
WIN@@ 14
shakira 14
favor@@ 14
una 14
YAHOO 14
Terminator 14
aron 14
HI 14
Meredith 14
former 14
NWA 14
definatly 14
Florida 14
roof 14
OOL 14
DRI@@ 14
gurl 14
Pepper 14
diffrent 14
January 14
AGAIN 14
ski@@ 14
.............. 14
KI@@ 14
HAHAHAHA@@ 14
Leppard 14
copyright 14
rough 14
Anatomy 14
dose 14
bad@@ 14
nel 14
KIDS 14
oner 14
NEY 14
Act@@ 14
powerful 14
Foxx 14
student 14
r. 14
Broadway 14
hil@@ 14
Pain 14
stops 14
AR 14
bber@@ 14
rights 14
tony 14
Gri@@ 14
vent 14
{ 14
octa@@ 14
coach 14
cutest 14
auditions 14
48 14
deli@@ 14
Sally 14
CC@@ 14
gin 14
posers 14
sales 14
PG 14
bbles 14
Ian 14
latin 14
fabulous 14
bio@@ 14
poo 14
towel 14
51 14
Through 14
Zepplin 14
somehow 14
wood@@ 14
LYRICS 14
lovers 14
light@@ 14
gimme 14
pile 14
prof@@ 14
raven 14
www.bearshare.com 14
tation 14
heights 14
favs 14
Hunter 14
Gene 14
advance 14
vinyl 14
web@@ 14
hype 14
ac 14
ux 14
Destiny 14
hav@@ 14
Beat 14
review 14
SSI@@ 14
classy 14
red@@ 14
Nano 14
punks 14
LIFE 14
Stri@@ 14
status 14
thor@@ 14
Hank 14
cial 14
pretend 14
YED 14
mite 14
Tro@@ 14
bre@@ 14
88 14
suddenly 14
makin 14
Rabbit 14
cutie 14
reside 14
nite 14
Worst 14
ARI@@ 14
SOUN@@ 14
edited 14
holy 14
Material 14
ential 14
Yan@@ 14
fees 14
manager 14
gf 14
countries 14
greedy 14
Plat@@ 14
who@@ 14
heat 14
responses 14
FUN@@ 14
Steven 14
swa@@ 14
solos 14
halen 14
genuine 14
ole 14
bread 14
Train 14
lun@@ 14
smaller 14
sco@@ 14
aol.com 14
hyster@@ 14
cities 14
Lionel 14
wwe 14
atleast 14
mour 14
Jr 14
ham@@ 14
Turner 14
like@@ 14
Guys 14
absolu@@ 14
lawyer 14
60@@ 14
bothered 14
lands 14
FOO@@ 14
naruto 14
disk 14
compli@@ 14
Tina 14
Cher 14
raw 14
farmer 14
christ@@ 14
beloved 14
pit 14
Pow@@ 14
skin@@ 14
dv@@ 14
DD 14
Scene 14
blade 14
Hil@@ 14
compared 14
inging 14
Blue@@ 14
Russell 14
Tiger 14
inferior 14
Americans 14
Burton 14
iness 14
Disc 14
Lor@@ 14
gossip 14
bie 14
hardly 14
Guide 14
society 14
gray 14
childish 14
activ@@ 14
refuse 14
bloom 14
sigh 14
touching 14
roles 14
owner 14
your@@ 14
parking 14
Secret 14
comedians 14
Leonardo 14
Bit@@ 14
Sher@@ 14
ideal 14
esh 14
witty 14
yn 14
spice 14
ided 14
MONEY 14
scares 14
renting 14
bike 14
tuning 14
ppers 14
goal 14
bucky 14
Phoenix 14
Adult 14
mates 14
Jaws 14
Ma 14
syn@@ 14
performances 14
shrimp 14
Locke 14
landed 14
fur@@ 14
askin 14
powers 14
aggressive 14
Block 14
Morrison 14
BABY 14
attract 14
General 14
Flow 14
Anakin 14
iles 14
cked 14
Low 14
exception 14
bacon 14
Gerard 14
unknown 14
classified 14
premi@@ 14
dresses 14
midget 14
Sou@@ 14
painted 14
Ku@@ 14
horoscope 14
rage 14
hidden 14
Edge 14
Email 14
Sna@@ 14
Orange 14
.co.uk 14
youtube 14
beef 14
suggest@@ 14
flir@@ 14
bless 14
areas 14
Barbie 14
Sy@@ 14
YO 14
relat@@ 14
painful 14
producing 14
occu@@ 14
Freddie 14
Part 14
arious 14
disp@@ 14
expected 14
Washington 14
Philippines 14
Pac 14
versus 14
numerous 14
arrived 14
chime 14
harm 14
applic@@ 14
YouTube 14
Each 14
Cancer 14
Ares 14
comparison 14
demonstr@@ 14
exten@@ 14
seeking 14
concept 14
possesses 14
Due 14
specifically 14
causes 14
gibson 13
ouch 13
computers 13
Cut 13
tu 13
SL@@ 13
project 13
WHICH 13
60s 13
cure 13
anga 13
GEN@@ 13
SITE 13
SIDE 13
Roger 13
Bar 13
srry 13
bt 13
rit@@ 13
Bart 13
waves 13
soooooooo@@ 13
buzz 13
msn 13
Pulp 13
SINGER 13
satellite 13
bes 13
dur@@ 13
ether 13
SORRY 13
mighty 13
Mamma 13
Mia 13
57 13
Don@@ 13
nudity 13
passion 13
hen@@ 13
western 13
Chan 13
Squarepants 13
miles 13
definetly 13
Doesn 13
k.com 13
choo@@ 13
gary 13
hella 13
LIE 13
lay@@ 13
appe@@ 13
overly 13
Mur@@ 13
Somebody 13
LD 13
SUN@@ 13
popcorn 13
Geisha 13
rhyme 13
dition 13
alo@@ 13
RING 13
anda 13
revolu@@ 13
rockin 13
New@@ 13
rice 13
risk 13
taxi 13
ng 13
ii@@ 13
package 13
Sound 13
nn@@ 13
trivia 13
SELF 13
BAB@@ 13
Opera 13
1999 13
dad@@ 13
diet 13
garage 13
FX 13
definitly 13
implants 13
wal 13
SON@@ 13
tiny 13
Sea 13
jet 13
MOR@@ 13
THOUGH 13
sse@@ 13
RAP 13
cube 13
joel 13
instructions 13
aby 13
Pan@@ 13
teachers 13
Hook 13
matrix 13
neighborhood 13
eld 13
poster 13
angin 13
CARE 13
duo 13
Taurus 13
list@@ 13
Rappers 13
Goes 13
crew 13
alley 13
www.video@@ 13
coffin 13
AOL 13
stalking 13
AAAA@@ 13
scorpio 13
Ear@@ 13
.but 13
dr 13
abc 13
Bac@@ 13
DNT 13
TIMES 13
kman 13
WITHOUT 13
ooh 13
CBS 13
oops 13
pub@@ 13
ssing 13
ANG 13
soul@@ 13
hippies 13
DADDY 13
ens@@ 13
GN 13
bean 13
Smells 13
Spirit 13
factory 13
crime 13
PS@@ 13
Any@@ 13
FIN@@ 13
Having 13
classes 13
figured 13
friggin 13
rental 13
pitch@@ 13
fork 13
medic@@ 13
heels 13
SEARCH 13
Sundays 13
edition 13
lisa 13
HAHA 13
sensitive 13
homer 13
Ugly 13
pearl 13
Boston 13
ingly 13
pronounce 13
amp@@ 13
tends 13
Kool 13
HOME 13
ANYONE 13
bum 13
evening 13
Awesome 13
Goofy 13
stern 13
slide 13
awake 13
zi 13
Oklahoma 13
LER 13
hint 13
Page 13
tar 13
dan 13
jac@@ 13
bearshare.com 13
flat@@ 13
stereo 13
DUDE 13
ised 13
Sith 13
stein 13
WW@@ 13
amazed 13
ANOTHER 13
Ohio 13
ctions 13
Jam@@ 13
ison 13
black@@ 13
PE 13
LUV 13
Who@@ 13
ont 13
lah 13
yyyyyyyy@@ 13
AD 13
grand 13
reci@@ 13
carrying 13
Ten@@ 13
iders 13
tool@@ 13
hhhhh 13
woo 13
gues 13
FAN 13
Spot 13
cracks 13
CHAN@@ 13
Hawk 13
breed 13
Jean 13
losers 13
fir@@ 13
Car 13
Hearts 13
toys 13
www.amazon.com 13
ozzy 13
Pepsi 13
alls 13
TTTT@@ 13
overrated 13
bare 13
ssi@@ 13
writes 13
2000 13
limited 13
Ob@@ 13
Duh 13
profile 13
steak 13
Fools 13
Ever@@ 13
walls 13
Fight 13
Black@@ 13
cious 13
Melissa 13
rod 13
doctors 13
lions 13
wu@@ 13
Ridd@@ 13
bey 13
ak 13
reti@@ 13
HOP 13
china 13
dia@@ 13
loa@@ 13
pirate 13
cleaner 13
GLE 13
disgu@@ 13
pilot 13
Ari@@ 13
grocery 13
blows 13
STILL 13
DON@@ 13
WAN@@ 13
ckin@@ 13
Phoebe 13
thir@@ 13
twi@@ 13
zombie 13
bir@@ 13
Niro 13
mr@@ 13
lau@@ 13
there@@ 13
Canada 13
wel 13
Town 13
north 13
brokeback 13
Carmen 13
ENCE 13
giant 13
attle 13
SW@@ 13
Gor@@ 13
bedroom 13
Bowie 13
verify 13
pump 13
tat@@ 13
Natalie 13
dent 13
dial 13
tooth 13
div@@ 13
ican 13
xi@@ 13
sie 13
prank 13
accidentally 13
hasnt 13
Finding 13
Title 13
Cameron 13
hobby 13
sixteen 13
effe@@ 13
beca@@ 13
um@@ 13
wel@@ 13
pet 13
Dou@@ 13
wonder@@ 13
comedies 13
OWN 13
NA 13
stream 13
Seven 13
nightmare 13
G. 13
pho@@ 13
various 13
stolen 13
Dr@@ 13
oul 13
Foster 13
irritating 13
Tyler 13
Pluto 13
EVERYONE 13
yers 13
Slow 13
Judas 13
Maria 13
afternoon 13
rep@@ 13
atic 13
noone 13
sma@@ 13
Silver 13
boyz 13
ety 13
46 13
traveling 13
liz@@ 13
soci@@ 13
pon 13
mar 13
flip 13
December 13
fail 13
bau@@ 13
attending 13
Jump 13
yang 13
Dig@@ 13
ok. 13
electr@@ 13
ummmm 13
Nick@@ 13
gwen 13
tti 13
deny 13
Pooh 13
fails 13
NU@@ 13
sci@@ 13
realistic 13
tage 13
Gal@@ 13
blon@@ 13
entry 13
ians 13
ringtones 13
amy 13
smiles 13
rows 13
bug 13
va@@ 13
alled 13
hoe 13
Kenshin 13
nan@@ 13
mm 13
Frea@@ 13
power@@ 13
ense 13
orlando 13
Dy@@ 13
Brooke 13
provo@@ 13
crossing 13
ority 13
compe@@ 13
Marie 13
Parker 13
mole 13
Redemption 13
abuse 13
served 13
Loo@@ 13
Busta 13
Roseanne 13
families 13
PARIS 13
smiling 13
ind@@ 13
worried 13
Hear@@ 13
elf 13
superb 13
downtown 13
game@@ 13
pper@@ 13
poly 13
stin 13
Bass 13
Roy 13
explode 13
use@@ 13
Must 13
gods 13
thx 13
trance 13
cows 13
lish@@ 13
Murder 13
piss 13
Cat@@ 13
Hand 13
EBAY 13
addictive 13
Fr@@ 13
icy 13
Than@@ 13
Gro@@ 13
predic@@ 13
licks 13
motion 13
exper@@ 13
attr@@ 13
tain@@ 13
Tool 13
Feel 13
Tomorrow 13
messing 13
education 13
invisible 13
hotmail.com 13
acc@@ 13
Shannon 13
jack@@ 13
Key 13
ind 13
audition 13
priced 13
involves 13
heart@@ 13
witness 13
fying 13
Lloyd 13
ushed 13
Sad 13
fault 13
ATL 13
pornographic 13
Scre@@ 13
outfit 13
Yahoo.com 13
mentally 13
Im@@ 13
mble 13
Kentucky 13
Franchize 13
Japan 13
graphy 13
Jan@@ 13
transfer 13
assa@@ 13
Research 13
explains 13
deleted 13
Caribbean 13
Georgia 13
stant 13
Hannah 13
Currently 13
describe 13
expert 13
Heat 13
consider@@ 13
solution 13
Center 13
disappointing 13
existence 13
Cents 13
comparable 13
inquiry 13
relevant 13
immensely 13
sufficient 13
refrain 13
discus@@ 13
satisfactory 13
Using 13
holiday 12
SUCH 12
Screw 12
Spe@@ 12
STUFF 12
tren@@ 12
nee 12
Revolver 12
WRONG 12
As@@ 12
ise@@ 12
vacation 12
oooooooo@@ 12
Shel@@ 12
sincere 12
SEEN 12
RS 12
fashioned 12
may@@ 12
backstreet 12
week@@ 12
soda 12
bon 12
Dora 12
ssy 12
dow@@ 12
cau@@ 12
generally 12
guitarists 12
dozen 12
KEY 12
nothin 12
persu@@ 12
Army 12
digital 12
gun@@ 12
ues 12
FAVORITE 12
Factory 12
USED 12
ELY 12
YER 12
READ 12
BEA@@ 12
stared 12
sty@@ 12
offended 12
Halle 12
sour@@ 12
whis@@ 12
Wrong 12
mac 12
Jose 12
Add 12
GUESS 12
Colu@@ 12
smurfs 12
regularly 12
note@@ 12
HELP 12
lol@@ 12
norris 12
anticip@@ 12
grunge 12
frea@@ 12
ht 12
plugged 12
INA 12
iley 12
gr8 12
psy@@ 12
UNDER@@ 12
Grail 12
titanic 12
playin 12
soccer 12
marilyn 12
FOX 12
bubba 12
ow@@ 12
DN 12
stomp 12
LIN 12
projects 12
Apocalypse 12
Carvey 12
slept 12
Surpri@@ 12
simil@@ 12
liar 12
launch.com 12
stunts 12
TRO@@ 12
chicago 12
aton 12
LMAO 12
Oz 12
HER@@ 12
mmmmm 12
WOUL@@ 12
Brittany 12
T.I. 12
HU@@ 12
1972 12
tina 12
es.@@ 12
carries 12
.s 12
climb 12
Tyra 12
eachother 12
sian 12
Dallas 12
CUZ 12
COR@@ 12
LO 12
SUPER 12
FINE 12
heres 12
biggie 12
ount 12
best@@ 12
Hurts 12
skit 12
fridge 12
nicer 12
Nyng 12
Nyak 12
noti@@ 12
dz 12
reg@@ 12
CAN@@ 12
sux 12
Eli@@ 12
lest 12
tary 12
funny@@ 12
Fi 12
religious 12
Mail 12
smu@@ 12
mic 12
succeed 12
CALL 12
Rent 12
Carlos 12
perverted 12
Dev@@ 12
ynes 12
ples 12
mess@@ 12
evanescence 12
wuz 12
VING 12
FF@@ 12
ales 12
standard 12
Electric 12
bcuz 12
mystery 12
po 12
spongebob 12
om@@ 12
accep@@ 12
lifestyle 12
89 12
Throw 12
TLC 12
Nightwish 12
belongs 12
england 12
rus 12
oon 12
havn 12
FUN 12
Sig@@ 12
ordinary 12
repor@@ 12
INK 12
ZZ 12
Listening 12
ud 12
CKED 12
Help 12
cifer 12
ctive 12
Mr.@@ 12
ext@@ 12
wha@@ 12
side@@ 12
TOO@@ 12
mma 12
shou@@ 12
friendship 12
www.ra@@ 12
bottles 12
SAW 12
XM 12
BAR@@ 12
cheer@@ 12
STER 12
Makes 12
HES 12
Every@@ 12
advertise 12
ker@@ 12
meaning@@ 12
inch 12
fth 12
jamie 12
Sydney 12
symbol 12
bleed 12
depressing 12
efron 12
pran@@ 12
tially 12
ALBUM 12
NED 12
pls 12
THESE 12
pets 12
Massacre 12
pronounced 12
Wit 12
Doom 12
Del 12
al.com 12
ef@@ 12
eee 12
Carry 12
400 12
jud@@ 12
Chee@@ 12
Fool 12
ght@@ 12
hmmmm 12
wd 12
burned 12
eless 12
confi@@ 12
queer 12
phil 12
wasting 12
berty 12
Legend 12
forms 12
TER@@ 12
MJ 12
mmes 12
evi@@ 12
Duran 12
Bullet 12
band@@ 12
MIC@@ 12
heroes 12
Demi 12
Bride 12
b.com 12
Teddy 12
Somewhere 12
hahahaha 12
bid 12
vals 12
sling 12
ax@@ 12
Between 12
mailing 12
Sunset 12
cs 12
responding 12
mail@@ 12
ple@@ 12
BODY 12
oooooooooooooooo@@ 12
simp@@ 12
R.I.P 12
recorder 12
sten 12
racing 12
zie 12
Agent 12
sticker 12
shorter 12
ign 12
Than 12
steve 12
passing 12
fee@@ 12
peanut 12
Wendy 12
1998 12
Emily 12
Usually 12
floyd 12
instruments 12
POINTS 12
fries 12
BREA@@ 12
SN 12
setting 12
rett 12
fly@@ 12
compete 12
AROUND 12
Jon@@ 12
ists 12
fag 12
Sharkey 12
dislikes 12
horses 12
FYE 12
cel@@ 12
dic 12
comedian 12
canc@@ 12
rel@@ 12
aco 12
Cocker 12
Mississippi 12
rubbish 12
stronger 12
1979 12
Roman@@ 12
8.@@ 12
cooler 12
Celine 12
River 12
ckers 12
horny 12
selected 12
ity@@ 12
assuming 12
pete 12
Clint 12
adm@@ 12
Frankenstein 12
3000 12
porch 12
Phi@@ 12
remote 12
entering 12
SHA@@ 12
Michelle 12
throwing 12
Chap@@ 12
Sharon 12
advertisement 12
handed 12
excitement 12
stol 12
dia 12
Trick 12
Shania 12
Station 12
teller 12
SED 12
ddly 12
disturbing 12
concentrate 12
anti@@ 12
Based 12
Point 12
Zach 12
dis 12
emo@@ 12
REMEMBER 12
sailor 12
www.i@@ 12
dead@@ 12
flew 12
elevator 12
fuckin 12
Heads 12
hur@@ 12
Oscars 12
never@@ 12
sies 12
puff 12
spir@@ 12
throughout 12
rom 12
rina 12
Phone 12
sweat 12
usion 12
jimmy 12
waz 12
cassette 12
LIST@@ 12
preten@@ 12
nar@@ 12
rio 12
post@@ 12
Neverland 12
register 12
foreign 12
Nightmare 12
micheal 12
Yellowcard 12
fascin@@ 12
Olsen 12
published 12
ply 12
Bull@@ 12
invol@@ 12
wee 12
fancy 12
invite 12
ckin 12
St 12
Fru@@ 12
enders 12
CKY 12
time@@ 12
Sci@@ 12
VCR 12
webpage 12
terri@@ 12
dum 12
lished 12
alba 12
charts 12
colour 12
cane 12
bill@@ 12
Antonio 12
ario 12
sword 12
shaped 12
ered 12
equivalent 12
destro@@ 12
Welcome 12
swi@@ 12
tations 12
appearing 12
Kirk 12
stro@@ 12
ew 12
rabia 12
Jeezy 12
stairs 12
gency 12
Rider 12
frightened 12
xy@@ 12
powder 12
WANNA 12
Az@@ 12
12th 12
hon 12
rela@@ 12
Av@@ 12
Coo@@ 12
frame 12
poison 12
prote@@ 12
Step 12
Good@@ 12
Smallville 12
Italian 12
fic 12
advanced 12
reflect 12
Alone 12
Greetings 12
weigh@@ 12
asm 12
spooky 12
detest 12
Stan 12
DAMN 12
ounds 12
completing 12
greater 12
challenge 12
Teenage 12
cellphone 12
Hong 12
ital 12
interests 12
directions 12
fron@@ 12
Clay 12
IPod 12
Max 12
challeng@@ 12
appreciated 12
Smurfs 12
quo@@ 12
Rico 12
spouse 12
reached 12
Monday 12
Lincoln 12
acces@@ 12
Fallout 12
Target 12
causing 12
Underwood 12
containing 12
consi@@ 12
obtained 12
emplo@@ 12
yment 12
Consider 12
intelle@@ 12
Rather 12
occurs 12
ninety 12
intimate 12
astrological 12
unfamiliar 12
portion 12
authentic 12
posterior 12
opposed 12
encoun@@ 12
regard 12
function 12
pe.com 11
educational 11
Late 11
interpre@@ 11
ept 11
lev@@ 11
TOM@@ 11
ROW 11
MIND 11
fold 11
comming 11
Seems 11
SOMEONE 11
xation 11
sally 11
phra@@ 11
mack 11
jane 11
pop@@ 11
Hes 11
Petty 11
kaz@@ 11
Kri@@ 11
oscar 11
SSED 11
hubby 11
fric@@ 11
Inch 11
IVE 11
produces 11
Enemy 11
stop@@ 11
DAUGH@@ 11
CRA@@ 11
eddie 11
sexiest 11
lor@@ 11
prostitute 11
Marvin 11
King@@ 11
kickin 11
vh1 11
pract@@ 11
Killer 11
frank 11
bing 11
dean 11
ram 11
Gil@@ 11
70@@ 11
apo@@ 11
waited 11
INS 11
eric 11
Temp@@ 11
metaph@@ 11
reverse 11
spoil 11
cho 11
ando 11
mun@@ 11
DVR 11
laffy 11
sno@@ 11
ound@@ 11
diddy 11
tea@@ 11
recognized 11
disney@@ 11
yt 11
cousins 11
errors 11
CRAZY 11
Miles 11
sig@@ 11
ENDS 11
hhhhhh 11
gorilla 11
Matthew 11
SEN@@ 11
VA@@ 11
RA 11
Europe 11
Daily 11
redhead 11
atient 11
P.S 11
MB 11
HAPP@@ 11
AMAZING 11
breaks 11
LEARN 11
Jacket 11
judgement 11
Unit 11
49 11
deal@@ 11
robert 11
u.@@ 11
ycle 11
Ferris 11
21@@ 11
Fresh 11
netflix 11
CLO@@ 11
TY@@ 11
grandfather 11
enty 11
itu@@ 11
OM@@ 11
built 11
heroin 11
'all 11
melody 11
weapon 11
musicals 11
Bir@@ 11
Raymond 11
Slater 11
aaaaaaaa@@ 11
pour 11
directed 11
LOOKS 11
77@@ 11
parks 11
Gina 11
DRA@@ 11
14th 11
Write 11
experiencing 11
them@@ 11
inner 11
oxy@@ 11
air@@ 11
Jenny 11
NEEDS 11
thering 11
matches 11
honky 11
It@@ 11
puke 11
tampon 11
tre 11
seri@@ 11
Direc@@ 11
Boondocks 11
Dr 11
Sci 11
lesbians 11
fortunate 11
Napster 11
IES 11
barbie 11
cracked 11
Worth 11
OO 11
shore 11
bunny 11
gas@@ 11
Pol@@ 11
Yu@@ 11
gement 11
desper@@ 11
FYI 11
bio 11
Omarion 11
Island 11
hiphop 11
awe@@ 11
STOP 11
YOU@@ 11
McDreamy 11
1989 11
Jungle 11
formed 11
10,000 11
FOUND 11
grill 11
1993 11
Lois 11
stretch 11
yay 11
TRUE 11
expecting 11
BLACK 11
dropped 11
companies 11
sumthin 11
pokemon 11
ONS 11
mmmm@@ 11
alter@@ 11
KIND 11
iam 11
sol@@ 11
woods 11
saturday 11
emails 11
itunes.com 11
americans 11
Parton 11
murdered 11
Shu@@ 11
hus@@ 11
bia 11
godsmack 11
Papa 11
COMES 11
joh@@ 11
map 11
loooo@@ 11
Pan 11
SIT@@ 11
DEP@@ 11
nowhere 11
toward 11
fat@@ 11
anged 11
EAR@@ 11
lift 11
1975 11
GIN@@ 11
repa@@ 11
SOOOO@@ 11
acked 11
Team 11
ggie 11
tball 11
iPods 11
elds 11
Questions 11
anne 11
chi 11
Colle@@ 11
artwork 11
Dirt 11
britt@@ 11
accur@@ 11
Cher@@ 11
Latin 11
Drink 11
broadway 11
italian 11
stle 11
PLACE 11
Main 11
libra 11
mpy 11
neighbors 11
Emp@@ 11
Bollywood 11
Swing 11
illing 11
riot 11
labeled 11
Beastie 11
Chong 11
tribute 11
Lorelai 11
formers 11
creator 11
clar@@ 11
Fin@@ 11
mere 11
FLI@@ 11
friendly 11
earth@@ 11
raised 11
contestants 11
oprah 11
Cul@@ 11
cd@@ 11
WIN 11
expre@@ 11
intense 11
90s 11
ami@@ 11
enga@@ 11
tuned 11
Phar@@ 11
committed 11
wwww@@ 11
ables 11
UGLY 11
HD 11
sunny 11
sci 11
ALLY 11
lamb 11
tley 11
hills 11
experiences 11
ddin 11
Poor 11
Pick@@ 11
EVERYTHING 11
Hitler 11
security 11
imit@@ 11
predict 11
boom 11
Frasier 11
shout 11
banjo 11
Paige 11
Door 11
nap@@ 11
WOMAN 11
52 11
sert 11
Special 11
Alicia 11
B. 11
San@@ 11
advent@@ 11
hob@@ 11
belt 11
Ren 11
Valentine 11
bittorrent 11
V.@@ 11
aww 11
Rogers 11
IE 11
mbers 11
ura 11
--------@@ 11
wallpaper 11
slowly 11
Until 11
share@@ 11
sounding 11
pres@@ 11
Bee 11
bage 11
dles 11
vig@@ 11
phy 11
VER@@ 11
girly 11
aid 11
sume 11
care@@ 11
bull@@ 11
travel@@ 11
CHO@@ 11
lian 11
rou@@ 11
entertainer 11
gaming 11
bat@@ 11
cies 11
hard@@ 11
cowboys 11
half@@ 11
Becky 11
'Don@@ 11
aunt 11
bbie 11
funds 11
Dion 11
Ur@@ 11
ree 11
sins 11
saur 11
hit@@ 11
friend@@ 11
youngest 11
Girlfriend 11
OV@@ 11
n.com 11
Gold@@ 11
Mick 11
pha@@ 11
wipe 11
pos@@ 11
spare 11
kshake 11
compre@@ 11
leback 11
trusted 11
drops 11
SEXY 11
Nicky 11
asi@@ 11
ZA@@ 11
les@@ 11
tter@@ 11
lue 11
cis 11
caster 11
i.@@ 11
67@@ 11
rolled 11
uhh 11
ure@@ 11
Fighting 11
views 11
Giants 11
Sponge 11
Russian 11
characteristics 11
emer@@ 11
Veronica 11
writ@@ 11
wink 11
Chainsaw 11
victim 11
hum 11
paranoid 11
wished 11
suprise 11
mn 11
merchandise 11
cigarette 11
itt 11
Cosby 11
PRI@@ 11
roller 11
Moses 11
Noah 11
icking 11
ALWAYS 11
replaced 11
prettier 11
emotion 11
Kidman 11
update 11
cker@@ 11
captain 11
zh@@ 11
topics 11
cle 11
Wikipedia 11
bol@@ 11
pussycat 11
spray 11
mento 11
Stand 11
part@@ 11
video@@ 11
Shawshank 11
ache 11
Sway 11
OOOOOOOO@@ 11
OOOO 11
Aren 11
Wouldn 11
socks 11
Classic 11
wooden 11
cheer 11
stood 11
stly 11
culate 11
refre@@ 11
settle 11
ult 11
touched 11
ash@@ 11
description 11
pills 11
aty 11
Bla@@ 11
ITE 11
temporary 11
chu@@ 11
what@@ 11
ELSE 11
amo 11
SR@@ 11
Penny 11
law@@ 11
psycho 11
adise 11
kar 11
jockey 11
rab@@ 11
nam 11
Clinton 11
Kit@@ 11
Work 11
holds 11
................................................................@@ 11
profiles 11
imag@@ 11
oot 11
minated 11
iller 11
enemy 11
Wan@@ 11
Gabriel 11
raining 11
hoopz 11
url 11
spyware 11
believ@@ 11
Company 11
progre@@ 11
eption 11
salad 11
blocker 11
bbed 11
healthy 11
desired 11
BELIEVE 11
nerd 11
serve 11
ington 11
Whi@@ 11
roundhouse 11
vet 11
Singer 11
ork 11
gener@@ 11
Osama 11
chase 11
Collins 11
Anderson 11
dale 11
fullest 11
Pumpkin 11
apparent 11
Missy 11
retarded 11
Lake 11
ggling 11
Stre@@ 11
arly 11
hipp@@ 11
gran@@ 11
Hero 11
habit 11
depth 11
degree 11
Middle 11
naturally 11
dub 11
shouted 11
slapping 11
assure 11
appointment 11
Dare 11
epers 11
sole 11
Sub@@ 11
illi 11
shared 11
disa@@ 11
extreme 11
Easter 11
App@@ 11
hooker 11
buttocks 11
trial 11
Private 11
Rosie 11
coke 11
stran@@ 11
Soul@@ 11
continued 11
Rocks 11
IMDB.com 11
ppe@@ 11
evidence 11
Sony 11
quarters 11
convinc@@ 11
leads 11
xing 11
dator 11
zzle 11
arian 11
eighteen 11
plat@@ 11
quired 11
deeply 11
inform@@ 11
MX 11
stall 11
swallow 11
matic 11
weety 11
layed 11
plans 11
form@@ 11
Drake 11
percent 11
eling 11
proceed 11
circu@@ 11
Beavis 11
Futurama 11
boxes 11
passes 11
Almost 11
microphone 11
Celebr@@ 11
gather 11
Mile 11
Laguna 11
Except 11
President 11
sincerely 11
resemblance 11
Shane 11
popularity 11
Instead 11
partial 11
supper 11
critici@@ 11
roughly 11
lik@@ 11
urinate 11
homosexu@@ 11
Spain 11
vomit 11
Sevenfold 11
sual 11
Nat@@ 11
grateful 11
Caucasian 11
acquired 11
behave 11
entirety 11
acquainted 11
engage 11
Messenger 11
uncomfortable 11
occurred 11
terrific 11
eagerly 11
pleasing 11
'Brien 10
know.@@ 10
i.e 10
hott@@ 10
HBO 10
manners 10
ricky 10
shady 10
IC 10
Knights 10
brit 10
-D 10
ISE 10
ral 10
ien 10
Rice 10
106 10
gasolina 10
halloween 10
basket 10
festi@@ 10
Boun@@ 10
Lot 10
mba 10
chan 10
PPER 10
Nathan 10
9th 10
swings 10
patrick 10
acher 10
korean 10
rocky 10
Professor 10
tura 10
span@@ 10
je 10
XX@@ 10
Reznor 10
FALL 10
Beaver 10
ligh@@ 10
Dish 10
Wings 10
Goku 10
Perfect 10
display 10
fab 10
Ladies 10
ch.com 10
logical 10
goals 10
Naked 10
asian 10
pun 10
05 10
dancers 10
darkness 10
Boi 10
Bam@@ 10
Dashboard 10
DAYS 10
ggs 10
yi 10
pods 10
TES 10
ORE 10
Detroit 10
KIL@@ 10
hr 10
gene@@ 10
taffy 10
root 10
I.@@ 10
scar 10
ado 10
GA 10
relation 10
eve@@ 10
rise 10
tains 10
graw 10
streets 10
avril 10
mins 10
TOP 10
DES 10
donno 10
uro@@ 10
Ventura 10
Bitch 10
operator 10
Calm 10
waits 10
Saved 10
toes 10
dull 10
Shes 10
Big@@ 10
dive 10
lica 10
Harrison 10
sm 10
differently 10
hm 10
Lol@@ 10
Moo@@ 10
holla 10
TWO 10
RENT 10
mber@@ 10
cab 10
oooooooo 10
mysterious 10
Pay 10
yi@@ 10
200@@ 10
providing 10
grats 10
casino 10
Blind 10
tam@@ 10
categories 10
zes 10
expression 10
ships 10
Solo 10
flavor 10
Eddy 10
Body 10
1997 10
ala@@ 10
xanga 10
wy 10
atten@@ 10
heh 10
Sav@@ 10
lopez 10
nipples 10
DOU@@ 10
scorpios 10
PAUL 10
BA 10
SIMP@@ 10
gore 10
Are@@ 10
GERS 10
nearest 10
tick 10
TW@@ 10
derline 10
therapy 10
Ow@@ 10
guessed 10
FORGET 10
hanks 10
disturbed 10
tori@@ 10
97 10
Ner@@ 10
breathing 10
zee 10
nik 10
HON@@ 10
taller 10
sould 10
Arms 10
laying 10
rox 10
goosebumps 10
ALE 10
hai 10
hs 10
Evan 10
wannabe 10
tus 10
Ba 10
fiance 10
ame 10
musically 10
oring 10
MAIL 10
SEND 10
sissy 10
'LL 10
gent@@ 10
Fro@@ 10
Theres 10
arabian 10
dit 10
Simmons 10
Lindsey 10
hangs 10
jen@@ 10
exotic 10
failure 10
immature 10
FINALLY 10
Pistols 10
hu 10
dah 10
ith 10
SLA@@ 10
WEBSITE 10
SA 10
nies 10
kenny 10
archi@@ 10
Apo@@ 10
CRAP 10
martial 10
asses 10
'r 10
introduce 10
LS 10
surgeon 10
Fever 10
Dawn 10
comeback 10
scripted 10
Goblet 10
Lizzie 10
Goo@@ 10
Shoo@@ 10
Tran@@ 10
ugh 10
MI 10
cheat@@ 10
code@@ 10
Dolly 10
BL@@ 10
achieve 10
ZZ@@ 10
yel@@ 10
Loc@@ 10
Ram@@ 10
e- 10
Za@@ 10
WR@@ 10
brands 10
xx@@ 10
hall 10
outrageous 10
ase 10
ove 10
shine 10
JOHNNY 10
decides 10
trace 10
TUR@@ 10
freestyle 10
MAT@@ 10
pops 10
SNT 10
LAND 10
io 10
Daw@@ 10
Green@@ 10
goodies 10
reasonable 10
98@@ 10
ment@@ 10
loo 10
union 10
rachel 10
www.wi@@ 10
cough 10
Gun@@ 10
hoped 10
Con 10
59 10
Xbox 10
inspi@@ 10
ddle 10
gon@@ 10
aol 10
destiny 10
POR@@ 10
bowwow 10
OOOOOOOOOOOOOOOO@@ 10
Dani 10
LED 10
iner 10
COURSE 10
Wyatt 10
Indiana 10
xes 10
DOG 10
soft@@ 10
whoa 10
FIL@@ 10
disrespectful 10
maj@@ 10
explan@@ 10
stock 10
QUESTIONS 10
ctively 10
hawthorne 10
silence 10
rement 10
HIP 10
probaly 10
yz 10
Launch 10
e. 10
borrow 10
thinkin 10
fought 10
God@@ 10
pressing 10
FREA@@ 10
sarcastic 10
IDIOT 10
cole 10
cuts 10
Sparxxx 10
LIVE 10
unky 10
Ful@@ 10
Police 10
marley 10
reputation 10
geni@@ 10
Aunt 10
hopes 10
scariest 10
life@@ 10
Flying 10
bitch@@ 10
Heck 10
puerto 10
salt 10
SPE@@ 10
bever@@ 10
road@@ 10
girlfriends 10
vic@@ 10
Fav 10
Ralph 10
cour@@ 10
supply 10
heavi@@ 10
host@@ 10
39 10
Radiohead 10
rera 10
fastest 10
Making 10
ablo 10
zu@@ 10
66@@ 10
phoenix 10
BOR@@ 10
IR 10
PER 10
THER@@ 10
Fat@@ 10
VIN 10
YE 10
CKS 10
,000@@ 10
slightest 10
C7 10
Cooper 10
CHIL@@ 10
hating 10
MBER 10
movement 10
Clash 10
Den@@ 10
H. 10
Origin@@ 10
tn 10
Goodness 10
approach 10
hulk 10
oooh 10
Back@@ 10
eared 10
browser 10
maiden 10
hawk 10
programm@@ 10
announced 10
voic@@ 10
arrogant 10
Totally 10
GNR 10
Muppets 10
DUMB 10
HIL@@ 10
Cult 10
Soundtrack 10
Diaz 10
bookstore 10
Rouge 10
bec@@ 10
TRI@@ 10
ITCH 10
GAS 10
Violent 10
Gi 10
Price 10
Vel@@ 10
claims 10
shoots 10
freedom 10
10th 10
bras 10
ssa 10
Belle 10
Ang@@ 10
bile 10
helping 10
moms 10
buff@@ 10
manufact@@ 10
Bry@@ 10
minded 10
hockey 10
SEE@@ 10
hesitate 10
chill 10
Bennett 10
Cand@@ 10
REP@@ 10
Bren@@ 10
scars 10
Sly 10
'nt 10
9.99 10
AU@@ 10
violin 10
Malo 10
ordered 10
heading 10
IRE 10
Wine 10
differen@@ 10
HH 10
yin 10
venue 10
Pump 10
kett 10
urt 10
YOURSELF 10
competit@@ 10
B.I.@@ 10
JOKE 10
Bone 10
boomerang 10
promp@@ 10
Goody 10
YET 10
SER@@ 10
tles 10
fest 10
contestant 10
goody 10
smack 10
Song@@ 10
mafia 10
Princess 10
KA 10
victims 10
situations 10
lik 10
hypo@@ 10
Meet 10
dumbest 10
ellar 10
annoyed 10
burner 10
panties 10
judges 10
Village 10
dust 10
clean@@ 10
sac@@ 10
vu 10
youve 10
Gold 10
Glass 10
rad 10
Twain 10
Male 10
KNO@@ 10
Spendin 10
.the 10
DANCE 10
technically 10
Molly 10
Spend 10
penter 10
how@@ 10
irish 10
tick@@ 10
cles 10
votes 10
fort 10
Korean 10
www.guitar@@ 10
Lun@@ 10
wrest@@ 10
stupi@@ 10
AI@@ 10
rol 10
Rad@@ 10
♥ 10
studied 10
unch 10
Comes 10
illian 10
todays 10
STEA@@ 10
AMERICAN 10
top@@ 10
acey 10
bler 10
limit 10
Volume 10
Clooney 10
responsi@@ 10
Sin 10
revi@@ 10
Stripper 10
kitty 10
Nicholas 10
Pantera 10
Circus 10
ann@@ 10
cheese@@ 10
lif@@ 10
Scarlett 10
symbo@@ 10
moo@@ 10
zy@@ 10
ribs 10
bricks 10
Mayer 10
indu@@ 10
Diamond 10
medi@@ 10
enu@@ 10
wash 10
owns 10
sident 10
Warren 10
stressed 10
listen@@ 10
HAHA@@ 10
beating 10
balloon 10
august 10
must@@ 10
locke 10
plant 10
oplin 10
1977 10
fights 10
Sma@@ 10
DR@@ 10
immy 10
Le 10
worms 10
1987 10
scroll 10
Beep 10
obse@@ 10
Brady 10
rial 10
watch@@ 10
Booty 10
dumped 10
tricky 10
Beckham 10
spaces 10
Wonder@@ 10
Julie 10
batt@@ 10
mellow 10
Edit 10
Lawrence 10
Trinny 10
sandwich 10
addic@@ 10
adap@@ 10
nur@@ 10
onel 10
Audio 10
kus@@ 10
Chesney 10
mper 10
entist 10
Boss 10
bear@@ 10
national 10
ffman 10
Animation 10
rant 10
Rhymes 10
Toni 10
CHE@@ 10
gel 10
I. 10
southern 10
Gol@@ 10
perc@@ 10
aled 10
Fantastic 10
strangers 10
kit@@ 10
Silence 10
Christ 10
stuffed 10
State 10
Orchestra 10
www.music@@ 10
O.C 10
pit@@ 10
gee@@ 10
wis@@ 10
itor 10
jon 10
vely 10
cals 10
upside 10
potato 10
convic@@ 10
Fez 10
Wife 10
gur 10
struck 10
dynamite 10
puppy 10
desires 10
premiere 10
ced 10
porno 10
bags 10
passion@@ 10
purse 10
stry 10
nicest 10
golf 10
McPhee 10
shortly 10
Underworld 10
advantage 10
ern@@ 10
services 10
Sugar@@ 10
pert 10
Downloading 10
avi@@ 10
Sera 10
prepared 10
cry@@ 10
devo@@ 10
Fan 10
compan@@ 10
Roth 10
weekly 10
groo@@ 10
Ville 10
cruel 10
tonk 10
elev@@ 10
raz@@ 10
Heath 10
resist 10
Broken 10
hurting 10
Cliff 10
Hermione 10
ballroom 10
Bus@@ 10
mx 10
portra@@ 10
positively 10
aten 10
lined 10
dissa@@ 10
Control 10
professionals 10
Daniels 10
rush 10
Ron@@ 10
inky 10
Ends 10
valuable 10
protect 10
www.letssingit.com 10
Fergie 10
demon 10
Bin 10
College 10
Smoke 10
icient 10
fast@@ 10
Flu@@ 10
Unlike 10
Jokes 10
Rag@@ 10
yahoo.co.uk 10
Burbank 10
esome 10
Damned 10
Rangers 10
Destination 10
stool 10
sequence 10
Suri 10
Shak@@ 10
ful@@ 10
Jar@@ 10
AJ 10
complaining 10
Wentz 10
dots 10
Button 10
occa@@ 10
DRU@@ 10
ises 10
obser@@ 10
Imagine 10
Too@@ 10
Prayer 10
gins 10
Ev@@ 10
originated 10
Shine 10
anced 10
criteria 10
iiii@@ 10
Men@@ 10
Daughtry 10
Basically 10
mmed 10
potential 10
Francisco 10
beneath 10
anxious 10
Weezer 10
pimp@@ 10
para@@ 10
conf@@ 10
rents 10
error 10
Godzilla 10
Moon@@ 10
Pokemon 10
exit 10
frequ@@ 10
suits 10
Rompe 10
Sar@@ 10
guarantee 10
consistently 10
rising 10
frustr@@ 10
mulat@@ 10
complain 10
intention 10
employed 10
incre@@ 10
hoom 10
selections 10
offered 10
communic@@ 10
responsible 10
figures 10
Evanescence 10
enthusia@@ 10
During 10
Firstly 10
continu@@ 10
prefers 10
benefit 10
Google.com 10
inebriated 10
s.com. 10
additionally 10
increase 10
defec@@ 10
Navigate 10
gigaby@@ 10
clarify 10
bets 9
MARRI@@ 9
agreed 9
admission 9
Winter 9
anism 9
ENOUGH 9
READY 9
sitcoms 9
Falling 9
brit@@ 9
radio@@ 9
TION@@ 9
billion 9
Miranda 9
BOYZ 9
Psycho 9
thn@@ 9
marks 9
multi 9
FF 9
CRI@@ 9
chap@@ 9
puppies 9
vens 9
Marvel 9
mie 9
mmies 9
Goodman 9
adds 9
WAIT 9
Edition 9
short@@ 9
exor@@ 9
sour 9
casts 9
beginner 9
sou@@ 9
announ@@ 9
WWWW@@ 9
sad@@ 9
Thought 9
fol@@ 9
guitar.com 9
usb 9
illegally 9
rascal 9
flatts 9
Dancer 9
ITION 9
chainsaw 9
atus 9
pushing 9
Files 9
'l 9
Jersey 9
dding 9
Sublime 9
wayz 9
Nic@@ 9
STU@@ 9
gt 9
knocking 9
outh 9
dino@@ 9
creatures 9
great@@ 9
DED 9
Return 9
memor@@ 9
Micheal 9
rez 9
dummy 9
lear@@ 9
Nelson 9
fav@@ 9
ourney 9
movements 9
nnnn@@ 9
ooooo 9
carter 9
commentary 9
ENING 9
le- 9
initi@@ 9
wack 9
FL 9
Sirius 9
mint 9
tub 9
Summer@@ 9
WHILE 9
MIL@@ 9
Menace 9
caucasian 9
joey 9
odds 9
atable 9
pack@@ 9
cine@@ 9
Colbert 9
Report 9
whiskey 9
buttons 9
jsut 9
rad@@ 9
'a 9
Hal@@ 9
PERFECT 9
strike 9
par 9
aming 9
2Pac 9
CITY 9
alized 9
BORN 9
SB 9
Rise 9
Major 9
playstation 9
TEN 9
'VE 9
nip 9
lipstick 9
puzzle 9
nest 9
craigs@@ 9
aaa@@ 9
spr@@ 9
bleach 9
break@@ 9
stie 9
rus@@ 9
Der@@ 9
HELL@@ 9
MILY 9
Book 9
seinfeld 9
blockbuster 9
GREATEST 9
Eve@@ 9
Rodney 9
generate 9
tank 9
ora 9
nerds 9
subscribe 9
emule 9
bitcomet 9
stal@@ 9
KEN 9
KNOWS 9
wax 9
t- 9
anis 9
farm 9
boro 9
SONS 9
ssion 9
HAN@@ 9
shoul@@ 9
tholic 9
wht 9
lbs 9
OFFICE 9
STAR@@ 9
Criminal 9
Kings 9
noe 9
Ea@@ 9
RE 9
THINGS 9
Inside 9
Dro@@ 9
GOD@@ 9
oray 9
sign@@ 9
monday 9
simon 9
gian 9
H.I.M 9
defe@@ 9
televi@@ 9
vine 9
RR@@ 9
receiving 9
chal@@ 9
slayer 9
angle 9
Albert 9
Boat 9
Gently 9
Behind 9
department 9
Sch@@ 9
ADD@@ 9
sev@@ 9
INTERNET 9
sick@@ 9
Hell@@ 9
nos 9
JJ 9
probly 9
plea@@ 9
erotic 9
secrets 9
Ex 9
Inter@@ 9
laser 9
Ble@@ 9
tering 9
COL@@ 9
tish 9
WB 9
ve.com 9
NEWS 9
africa 9
dm@@ 9
skool 9
Theme 9
pple 9
elled 9
alb@@ 9
BOYS 9
goose 9
pher 9
bringing 9
YEA 9
starters 9
races 9
jan 9
mentary 9
resi@@ 9
eved 9
99.@@ 9
SOO 9
Pam 9
long@@ 9
thrash 9
LOVES 9
6.@@ 9
eries 9
COUPLE 9
ETC 9
funk 9
ofcourse 9
jake 9
fam@@ 9
rides 9
drunken 9
underworld 9
TURN 9
AWAY 9
fathers 9
atin 9
acking 9
london 9
adding 9
orns 9
THE@@ 9
thed 9
Trace 9
Bright 9
stepped 9
pointing 9
lifting 9
soundtracks 9
ffin 9
BORING 9
Meatloaf 9
hunt 9
Nancy 9
Coun@@ 9
magician 9
sar@@ 9
beans 9
pstick 9
sag@@ 9
richard 9
horri@@ 9
dio 9
MED 9
wave 9
Filth 9
XP 9
ylin 9
SIL@@ 9
logist 9
josh 9
wealth 9
Monk 9
FIRE 9
flight 9
Bea@@ 9
thou 9
ATE 9
shful 9
tooth@@ 9
Fly@@ 9
spots 9
sane 9
shaking 9
come@@ 9
NYC 9
Chea@@ 9
mccartney 9
vhs 9
é 9
ym 9
tim 9
grace 9
Seriously 9
vinci 9
INDI@@ 9
survivors 9
buried 9
Rubber 9
ctr@@ 9
leap 9
novela 9
Sai@@ 9
dot 9
spi@@ 9
.But 9
41 9
Vin@@ 9
Scorpios 9
sna@@ 9
pier@@ 9
Babies 9
annoys 9
Uma 9
apple.com 9
lds 9
neigh@@ 9
Tar@@ 9
vement 9
Morning 9
Kung 9
sanity 9
guts 9
seeds 9
butterfly 9
burns 9
kups 9
sers 9
................ 9
Techn@@ 9
scu@@ 9
smallville 9
sho 9
assumed 9
me.com 9
tear 9
vis 9
boards 9
ryptonite 9
tai 9
dumber 9
crow@@ 9
bizarre 9
pac 9
s. 9
pi 9
GAME 9
Track 9
hail 9
Met@@ 9
randy 9
Mystic 9
weigh 9
origin 9
TBS 9
communication 9
Dream@@ 9
Mulan 9
soooooooooooooooo@@ 9
ebay.com 9
Babe 9
AMERICA 9
gli@@ 9
tters 9
BEYONCE 9
BEACH 9
scratch 9
Compton 9
circumstances 9
Later 9
Jonny 9
path 9
LEY 9
skeleton 9
Dang 9
Lyrics.com 9
medy 9
ushing 9
satisfied 9
Stimpy 9
tent 9
TA 9
bea@@ 9
Evans 9
kees 9
ssions 9
unit 9
hearted 9
stupidest 9
Sunshine 9
gold@@ 9
DOESN 9
alicia 9
bam 9
thou@@ 9
Hen@@ 9
Basket 9
favourites 9
Jee@@ 9
Uni@@ 9
Fighters 9
cheater 9
ASS 9
Strange 9
MUSIC@@ 9
Doug 9
forgive 9
WIL@@ 9
mbies 9
mother@@ 9
Jeannie 9
Whoever 9
rocket 9
chairs 9
determin@@ 9
route 9
Dates 9
Ted 9
............... 9
lemme 9
machines 9
Dest@@ 9
shampoo 9
Matrix 9
BUY 9
anniversary 9
sunshine 9
Brandon 9
Flo@@ 9
WOW 9
Manga 9
Buck 9
itizen 9
Blvd 9
skirt 9
Sor@@ 9
idle 9
www.mp3@@ 9
shits.com 9
ripped 9
castle 9
Otherwise 9
snap 9
leck 9
homopho@@ 9
angels 9
stair 9
technique 9
melt 9
zeppelin 9
Coast 9
Rel@@ 9
sos 9
bible 9
VIDEOS 9
gear 9
National 9
ories 9
greek 9
app 9
pond 9
Guar@@ 9
offence 9
fm 9
Blu@@ 9
witch@@ 9
Bun@@ 9
www@@ 9
TERS 9
ouldn 9
earing 9
uuuu@@ 9
dea 9
Dunn 9
ris@@ 9
Gris@@ 9
Ant 9
Chains 9
dup@@ 9
igno@@ 9
600 9
organi@@ 9
Dee 9
pan 9
infinity 9
crawling 9
w.@@ 9
Bohe@@ 9
tennis 9
Smart 9
junior 9
thang 9
chor@@ 9
Shirley 9
connections 9
slower 9
Kansas 9
exceptions 9
BLONDE 9
fal@@ 9
Martina 9
McBride 9
xies 9
carried 9
lip@@ 9
Ouch 9
Braveheart 9
county 9
mili@@ 9
sheep 9
F. 9
berries 9
boots 9
Lynard 9
Syn@@ 9
leather 9
buzz@@ 9
singles 9
UU@@ 9
HHHH@@ 9
AA@@ 9
Verse 9
chwar@@ 9
jump@@ 9
wikipedia 9
Squad 9
hay 9
Haw@@ 9
scar@@ 9
choke 9
assho@@ 9
tors 9
strea@@ 9
smurf 9
Perry 9
cheeks 9
microwave 9
yip 9
................................@@ 9
scales 9
Born 9
graduation 9
Haley 9
millions 9
parade 9
carefully 9
gene 9
austin 9
deep@@ 9
inju@@ 9
72 9
marshmallows 9
Maggie 9
tag 9
Valley 9
fa 9
Cowell 9
tuner 9
Film 9
bong 9
critical 9
Sheryl 9
Stella 9
preppy 9
burgers 9
mann 9
grab@@ 9
emotionally 9
esp 9
Isa@@ 9
Pil@@ 9
Barker 9
kal@@ 9
chester 9
Colin 9
iler 9
hahahahaha 9
sneak 9
Camp@@ 9
upcoming 9
rying 9
yest 9
Andrew 9
03 9
Storm 9
sper 9
apprentice 9
oes 9
Epi@@ 9
star.com 9
902@@ 9
loaded 9
Off@@ 9
exi@@ 9
imagin@@ 9
nal 9
Micha@@ 9
bee@@ 9
Key@@ 9
Thunder 9
charges 9
Sco@@ 9
extras 9
mid@@ 9
cise 9
mens 9
ZZZZ@@ 9
cooking 9
Gill 9
mute 9
Below 9
Ali 9
gni@@ 9
Ax@@ 9
reminding 9
Bliss 9
roun@@ 9
Marissa 9
cord 9
venile 9
hun 9
Med@@ 9
soner 9
robin 9
Ani@@ 9
'Cause 9
Chick 9
craw@@ 9
detta 9
dges 9
Pictures 9
ioned 9
offic@@ 9
Garden 9
sperm 9
Janis 9
ilo@@ 9
assi@@ 9
untill 9
pancakes 9
rocking 9
embarrassed 9
Valo 9
thousands 9
income 9
jar 9
censored 9
WON 9
pitch 9
zen 9
Drama 9
WWF 9
eigh@@ 9
easiest 9
entists 9
battery 9
ricks 9
wrap 9
centric 9
love@@ 9
Carly 9
suffer 9
TR@@ 9
scent 9
detail 9
Tun@@ 9
rhy@@ 9
MORNING 9
coon 9
Soap 9
mandisa 9
disgusted 9
HHHHHHHHHHHHHHHH@@ 9
Ozzfest 9
CNN 9
forest 9
lipsy@@ 9
Sing@@ 9
MC@@ 9
eg 9
water@@ 9
worship 9
Hop@@ 9
lon 9
Flip 9
tial 9
LEAST 9
bobby 9
Service 9
filmed 9
birth@@ 9
circles 9
bananas 9
slot 9
Chester 9
Ms. 9
flu 9
Stry@@ 9
desp@@ 9
MAD 9
Ger@@ 9
stunning 9
Music@@ 9
enta 9
20th 9
Til 9
ony 9
mono@@ 9
od@@ 9
Delight 9
Trans@@ 9
Topic 9
lem 9
Avenue 9
evy 9
fourteen 9
stereo@@ 9
dos 9
happier 9
thee 9
weapons 9
Lyn@@ 9
accepted 9
irm 9
requires 9
Spring 9
embarra@@ 9
Comm@@ 9
Trey 9
Double 9
lime@@ 9
Laugh@@ 9
ush@@ 9
ico 9
mask 9
ros 9
Bad@@ 9
Flava 9
forge@@ 9
uce 9
honesty 9
After@@ 9
bt@@ 9
Alan 9
Trish 9
puni@@ 9
Kumar 9
Castle 9
mixes 9
tender 9
Nickelodeon 9
Cook 9
sized 9
fate 9
Closer 9
snot 9
gothic 9
Offspring 9
mas@@ 9
reco@@ 9
Bor@@ 9
clef 9
chili 9
personalities 9
snea@@ 9
Exc@@ 9
distribu@@ 9
Sixth 9
presence 9
Net 9
Films 9
purely 9
logo 9
eliminated 9
athletic 9
quar@@ 9
droo@@ 9
Morpheus 9
traditional 9
perspective 9
loudly 9
explained 9
cocaine 9
wats 9
lyrics@@ 9
Bauer 9
dump 9
submit 9
Mercury 9
ballad 9
www.3gforfree.com 9
Wallace 9
requi@@ 9
Lynn 9
William 9
Junkie 9
tights 9
Ash@@ 9
lifetime 9
Brittney 9
P2P 9
slang 9
claim 9
Aqu@@ 9
Underground 9
Ninja 9
minate 9
stered 9
Seasons 9
disap@@ 9
caps 9
educated 9
abbrevi@@ 9
damage 9
enced 9
glu@@ 9
ava 9
manage 9
1978 9
BEEP 9
seats 9
Fel@@ 9
ver.com 9
Dopey 9
Free@@ 9
vie 9
gons 9
ased 9
Del@@ 9
Fantasia 9
moni@@ 9
Kel@@ 9
overwhel@@ 9
mat 9
maxi@@ 9
cracking 9
Burger 9
Planet 9
imitate 9
Married 9
spoke 9
Own 9
trend 9
Bun 9
Lon@@ 9
held 9
Fle@@ 9
Bye 9
ising 9
comb 9
patient 9
Casino 9
eighties 9
resemb@@ 9
Franklin 9
sharea@@ 9
dogpile.com 9
ghosts 9
Africa 9
excessive 9
Hay@@ 9
jean 9
Chan@@ 9
sav@@ 9
gratulations 9
imbec@@ 9
flips 9
Bands 9
empha@@ 9
Elmo 9
ening 9
stating 9
Cream 9
Fast 9
cock@@ 9
Atlanta 9
Elm 9
Donald 9
Indie 9
Outkast 9
legitimate 9
Diego 9
endure 9
infant 9
Jewish 9
Negative 9
favorable 9
indeed 9
incorrectly 9
Correct 9
regar@@ 9
amused 9
Tre 9
unappealing 9
recieve 9
recommended 9
significantly 9
Allow 9
Depending 9
procure 9
quire 9
Alternatively 9
partake 9
exceptionally 9
portrays 9
main@@ 9
Carolina 9
surmise 9
reasoning 9
difficulties 9
indic@@ 9
desirable 9
repeated 9
comedic 9
inqui@@ 9
victorious 9
descri@@ 9
sixty 9
tolerate 9
observed 9
Exam@@ 9
Spy 8
angles 8
establish@@ 8
Hail 8
RIDD@@ 8
slim 8
seven@@ 8
flags 8
chubby 8
Queens 8
MILLI@@ 8
lidays 8
TV@@ 8
romeo 8
patch 8
spiderman 8
Donnie 8
jewish 8
tagonist 8
'on 8
Dragonball 8
Fal@@ 8
lolo@@ 8
Thro@@ 8
LOOKING 8
STORY 8
VER 8
WN@@ 8
exchange 8
howard 8
reve@@ 8
dc 8
shell 8
Trent 8
morrison 8
Catch 8
Extreme 8
Cassidy 8
BOB 8
Lifehouse 8
POLI@@ 8
Ummm 8
nit@@ 8
Sle@@ 8
some1 8
morons 8
Memphis 8
14@@ 8
Volkswa@@ 8
Gaye 8
grat@@ 8
sarah 8
johnson 8
gona 8
quit@@ 8
Spon@@ 8
mbed 8
RIP 8
amaz@@ 8
WWWW 8
Action 8
wr 8
Oregon 8
---- 8
winners 8
Confessional 8
Frog 8
barney 8
roller@@ 8
CUTE 8
clark 8
cud 8
SENT 8
runner 8
ITH 8
lis 8
pton 8
bitchy 8
centr@@ 8
amir 8
any1 8
dock 8
leton 8
commun@@ 8
AH 8
THAN 8
KELLY 8
NIC@@ 8
cray@@ 8
combined 8
reland 8
Mercy 8
1967 8
Chaka 8
ohio 8
marching 8
yland 8
intro@@ 8
Memoirs 8
veling 8
shooting 8
Games 8
puzz@@ 8
Judy 8
rear@@ 8
VEL@@ 8
COME@@ 8
GES 8
SAD 8
07 8
MIKE 8
mbia 8
bu 8
initially 8
Maid 8
xm 8
Wall@@ 8
eta 8
Springer 8
staind 8
deri@@ 8
sky@@ 8
inet 8
Harbor 8
addy 8
xi 8
remark 8
pressed 8
specially 8
speaks 8
abi 8
arguing 8
Vai 8
Zu@@ 8
nees 8
midnight 8
bic@@ 8
Wizard 8
grou@@ 8
Uhh 8
XI 8
Maroon 8
arse 8
555 8
WO@@ 8
HALF 8
AF@@ 8
DIFF@@ 8
vince 8
wron@@ 8
happily 8
b.@@ 8
iest 8
mininova.org 8
azure@@ 8
wig 8
cork 8
fortun@@ 8
scape 8
Bianca 8
sley 8
Mario 8
blank 8
dogg 8
dre 8
ania 8
shock 8
thug 8
Wynonna 8
Judds 8
bud@@ 8
rers 8
Toy 8
Stars 8
satisfaction 8
Capricorn 8
eeee@@ 8
where@@ 8
ps@@ 8
Gee 8
58 8
gym 8
SUCK 8
dwar@@ 8
SER 8
ROSE 8
pump@@ 8
Grammy 8
ACTUALLY 8
Explorer 8
FRIENDS 8
poetry 8
Fa 8
whatsoever 8
leading 8
ranger 8
STR@@ 8
adam@@ 8
Girl@@ 8
LYRIC@@ 8
S.COM 8
GB 8
import@@ 8
bein 8
cam@@ 8
phar@@ 8
ironic 8
slu@@ 8
truthful 8
Birth 8
Iraq 8
quirky 8
woul@@ 8
OS 8
reeves 8
taxes 8
1991 8
jah 8
gunna 8
mayb 8
stare 8
beside 8
beacause 8
YE@@ 8
xbox 8
gerard 8
kab@@ 8
ggers 8
Actor 8
MISS 8
ch.@@ 8
THREE 8
Denzel 8
ls@@ 8
ru 8
Dj 8
GH 8
LAN@@ 8
carri@@ 8
chart 8
Mari@@ 8
buffy 8
Considering 8
raz 8
ific 8
Modern 8
Hair 8
drawing 8
HILARIOUS 8
reckon 8
Jude 8
oose 8
phantom 8
sith 8
RESS 8
TURE 8
SPA@@ 8
destruction 8
CONC@@ 8
ERT 8
cas 8
Joy 8
9.@@ 8
Mi 8
Ooh 8
Playboy 8
Eazy 8
onal 8
pony 8
hid 8
remy 8
by@@ 8
homo 8
N. 8
Mostly 8
nanny 8
aaaa@@ 8
vering 8
inger 8
GB@@ 8
0.@@ 8
Betty 8
Vaughn 8
bah 8
Spit 8
ANI@@ 8
ACT@@ 8
gol@@ 8
newgr@@ 8
86 8
AGO 8
Blondie 8
Ramm@@ 8
damned 8
amela 8
Made 8
hing 8
feathers 8
ordin@@ 8
ylon 8
Cowboys 8
DREA@@ 8
Eh 8
cler@@ 8
PRODU@@ 8
TOTALLY 8
YTH@@ 8
spl@@ 8
bli@@ 8
pine 8
indicated 8
.you 8
Karaoke 8
dep@@ 8
Idk 8
Ton@@ 8
adonk 8
coconuts 8
printed 8
entertain 8
TUN@@ 8
NER 8
SISTER 8
eleph@@ 8
hush 8
vege@@ 8
mule 8
ime 8
NING 8
yllen@@ 8
Victoria 8
Favorites 8
fea@@ 8
mart.com 8
gala@@ 8
gey 8
Fray 8
Cable 8
Schwar@@ 8
searches 8
sayin 8
banks 8
Adkins 8
dats 8
sunglasses 8
pointed 8
ead@@ 8
drum@@ 8
POTTER 8
STE@@ 8
OOO 8
Waits 8
teddy 8
offend 8
thout@@ 8
remade 8
Sea@@ 8
embaras@@ 8
Circle 8
98.@@ 8
apartment 8
ALS 8
hillary 8
queens 8
personaly 8
vi 8
Sound@@ 8
preg@@ 8
GER@@ 8
duran 8
yor 8
step@@ 8
infe@@ 8
Zoo 8
terribly 8
ussie 8
Cookie 8
Called 8
tops 8
dgens 8
warez 8
decor@@ 8
KER 8
UT 8
23rd 8
LOV@@ 8
Battle 8
Roy@@ 8
kel 8
Connery 8
advi@@ 8
mmers 8
yall 8
Gift 8
people@@ 8
finder.com 8
Dozen 8
nephe@@ 8
carribean 8
ily 8
16@@ 8
mph 8
aur@@ 8
mexic@@ 8
alice 8
frankie 8
ots 8
collabor@@ 8
hei@@ 8
kat 8
crimin@@ 8
pati@@ 8
biz 8
Jor@@ 8
bully 8
Interesting 8
counted 8
blog@@ 8
Waiting 8
youn@@ 8
sonic 8
gent 8
wreck 8
87@@ 8
THERS 8
sony 8
consul@@ 8
tant 8
FO 8
tisdale 8
basement 8
kish 8
150 8
Alchemist 8
meless 8
joy@@ 8
mpson 8
hendrix 8
Bozo 8
EVERY@@ 8
Squirrel 8
ohh 8
belle 8
him@@ 8
Definately 8
tease 8
marrying 8
End 8
rican 8
snor@@ 8
green@@ 8
stic@@ 8
gal@@ 8
vey 8
tom@@ 8
MER@@ 8
MAKES 8
samples 8
Over@@ 8
cluding 8
sly 8
gy@@ 8
19th 8
napoleon 8
Coyote 8
Grind 8
natch 8
aniston 8
Cotton 8
contests 8
53 8
ody 8
Brea@@ 8
1984 8
repair 8
Phy@@ 8
sco 8
Speed 8
www.ebay.com 8
literally 8
Animal 8
drummers 8
1.99 8
vul@@ 8
excla@@ 8
MOM@@ 8
ittsburgh 8
Speak 8
Sandra 8
zzie 8
Lite 8
yan@@ 8
mson 8
WOOD 8
tton 8
FEE@@ 8
Kareena 8
theatres 8
nab@@ 8
Jun@@ 8
08@@ 8
thic 8
Lenny 8
thik 8
gor 8
SEASON 8
Ding 8
net.com 8
CHUCK 8
franchise 8
Record 8
Found 8
FACE 8
lator 8
aby@@ 8
OUND 8
translate 8
gely 8
KNEW 8
Sprocket 8
tablo@@ 8
L.A. 8
Prodigy 8
Stal@@ 8
conserv@@ 8
hicks 8
audit@@ 8
cist 8
vice 8
coaster 8
wrec@@ 8
sday 8
revol@@ 8
Average 8
nigga 8
ousy 8
dental 8
Dunno 8
slutty 8
LEFT 8
eper 8
deer 8
Case 8
FREAK 8
scratching 8
Dorothy 8
singingfish.com 8
Daisy 8
Eurotrip 8
ild 8
Kennedys 8
GRE@@ 8
Exorcism 8
lap 8
pat 8
Maul 8
Jar 8
Grillz 8
cent@@ 8
tatoo 8
wires 8
dex 8
mmmmmmmm@@ 8
L.A 8
music.@@ 8
roy 8
Endless 8
drowned 8
MOVIES 8
ani 8
Tenacious 8
opened 8
lina 8
totaly 8
aly@@ 8
holly 8
sing@@ 8
truely 8
LIME@@ 8
condition 8
m. 8
chop 8
EXACTLY 8
Stranger 8
Kane 8
elm 8
04 8
sesame 8
junk.com 8
hokey 8
ION 8
boyco@@ 8
tioning 8
shin@@ 8
oof 8
yna 8
1971 8
maine 8
shuffle 8
aaa 8
Jodie 8
Derek 8
DEFIN@@ 8
vacuum 8
smokin 8
MOTION 8
LOW@@ 8
MOVE 8
vor@@ 8
seal 8
MEN 8
Breathe 8
prizes 8
caution 8
diving 8
treated 8
Dill@@ 8
jee@@ 8
anging 8
Female 8
ctuate 8
Gang@@ 8
Pit@@ 8
intriguing 8
dealing 8
attached 8
START 8
lotta 8
eff@@ 8
dough 8
Eastwood 8
shud 8
mistakes 8
smooth 8
ebo@@ 8
sibling 8
snt 8
comer@@ 8
bour@@ 8
ough 8
Brand 8
Sunrise 8
METAL 8
mus 8
werent 8
gifts 8
remakes 8
pps 8
narr@@ 8
mian 8
rigged 8
XD 8
yyyy@@ 8
sera 8
Mule 8
productive 8
eye@@ 8
CHOOSE 8
dads 8
penny 8
ts@@ 8
armstrong 8
tto 8
sup 8
2008 8
ctra 8
Aishwarya 8
smil@@ 8
onics 8
spee@@ 8
smoo@@ 8
ALMOST 8
exam 8
Hetfield 8
coma 8
pots 8
PR@@ 8
Chappelle 8
willi@@ 8
stefani 8
cool@@ 8
ade@@ 8
lear 8
RECORD 8
309 8
isyahu 8
jerks 8
homecoming 8
force@@ 8
ox 8
nings 8
straw@@ 8
Kick 8
drool 8
tos 8
crow 8
ured 8
iser 8
thm 8
phy@@ 8
SOS 8
Breaking 8
mp3.com 8
GUYS 8
deon 8
weezer 8
FIVE 8
justin 8
unts 8
whole@@ 8
PART 8
ugliest 8
bound 8
Wildfire 8
Las@@ 8
hed 8
provider 8
cage 8
xton 8
Staind 8
world.com 8
dragged 8
Lynyrd 8
Skynyrd 8
Clear@@ 8
grillz 8
Gorillaz 8
bcoz 8
right@@ 8
1996 8
diamond 8
re.com 8
dyed 8
LAUGH 8
dil@@ 8
dt 8
Mob 8
Job 8
half.com 8
tech 8
BIRTHDAY 8
butt@@ 8
1960s 8
teh 8
Thu@@ 8
mony 8
translation 8
kat@@ 8
Health 8
Kid@@ 8
Theory 8
obsession 8
Orleans 8
diego 8
123 8
Crew 8
cti@@ 8
restroom 8
OB@@ 8
sandler 8
mpa@@ 8
stinky 8
Wham 8
dem@@ 8
booger 8
buil@@ 8
downhill 8
Laura 8
brick 8
weighs 8
industries 8
Ballad 8
urine 8
Update 8
1964 8
Brain 8
SHES 8
schoo@@ 8
minus 8
bot 8
rested 8
jamin 8
damag@@ 8
POWER 8
TIC@@ 8
borne 8
erm 8
fah 8
thighs 8
Kinnik 8
dder 8
wherever 8
har 8
agger 8
greats 8
sto 8
Pin@@ 8
low@@ 8
din 8
ring@@ 8
stroke 8
Assa@@ 8
TRYING 8
tragedies 8
Add@@ 8
embarrassing 8
vy@@ 8
Ashanti 8
gambling 8
rane 8
destroyed 8
philippines 8
jol 8
conventional 8
Sopranos 8
spoon 8
ae 8
hideous 8
alarm 8
dork 8
DOING 8
tician 8
mons 8
repeats 8
VIDEO 8
stit@@ 8
mond 8
cric@@ 8
comp 8
elaborate 8
Tis@@ 8
big@@ 8
bourne 8
Trading 8
wot 8
beautifully 8
Newman 8
LOTS 8
GONE 8
atch 8
Susan 8
Omg 8
ALAL@@ 8
Gross 8
gad@@ 8
Eden 8
bust 8
elmo 8
perate 8
shoulders 8
danced 8
proper@@ 8
enter@@ 8
space@@ 8
Ives 8
warri@@ 8
Swe@@ 8
retard 8
collector 8
banging 8
contro@@ 8
Sisters 8
buis@@ 8
Dogs 8
lullaby 8
frozen 8
debate 8
bara 8
posed 8
Rapper 8
amanda 8
folk 8
tali@@ 8
adn 8
parrot 8
design 8
xter 8
Keira 8
Trump 8
Photo@@ 8
pedal 8
Vanessa 8
sch@@ 8
argument 8
quali@@ 8
slin@@ 8
infatuated 8
mew 8
puzzled 8
yahoo.com.@@ 8
SION 8
develop@@ 8
frustrated 8
exclaimed 8
Lemon 8
Jagged 8
stays 8
elli 8
Unfor@@ 8
ental 8
Dri@@ 8
SD 8
stics 8
Jackass 8
obe@@ 8
ec@@ 8
booted 8
Manners 8
Butter@@ 8
Tuck 8
dness 8
smoked 8
zard 8
dity 8
torn 8
with@@ 8
licity 8
Youth 8
Fatboy 8
Whit@@ 8
harsh 8
CTION 8
fictional 8
gger@@ 8
uts 8
four@@ 8
graphs 8
Spock 8
soo@@ 8
esteem 8
Res@@ 8
scen@@ 8
Karma 8
moody 8
Whole 8
Fl@@ 8
.................... 8
xwell 8
Bail@@ 8
escaped 8
Darn 8
BUR@@ 8
m.com 8
ferret 8
Susie 8
EXCEPT 8
Psy@@ 8
DB@@ 8
row@@ 8
Imb@@ 8
badass 8
hopeful 8
rent@@ 8
resa 8
comfort 8
ht@@ 8
phenomenal 8
Taking 8
Cau@@ 8
Creed 8
rain@@ 8
INT 8
sciento@@ 8
nightly 8
subscription 8
coldplay 8
Led@@ 8
Dun@@ 8
ming@@ 8
Huh 8
consci@@ 8
onk@@ 8
aloud 8
Topher 8
Malmsteen 8
fellas 8
mud 8
cap 8
tatt@@ 8
bullets 8
walker 8
Method 8
idiotic 8
pot 8
iry 8
fist 8
Rowling 8
anime.com 8
versi@@ 8
roc@@ 8
Roo@@ 8
Metal@@ 8
fiddle 8
Grim 8
Franchise 8
Southern 8
wizard 8
cooked 8
Cherry 8
JUNE 8
Harold 8
ounts 8
www.e@@ 8
prices 8
sep@@ 8
dhound 8
Rurouni 8
fanfic@@ 8
hmmmmm 8
gained 8
grease 8
skill 8
cloppedy 8
Gabri@@ 8
endation 8
ifi@@ 8
dary 8
cellu@@ 8
fing 8
websit@@ 8
wy@@ 8
boredom 8
Beet@@ 8
Tom@@ 8
hears 8
JoJo 8
ickens 8
williams 8
u. 8
auction 8
Sweat 8
camer@@ 8
makers 8
chie 8
channel.com 8
ID@@ 8
layouts 8
Thunder@@ 8
MCR 8
500,000 8
tch@@ 8
Nokia 8
Strike 8
noo@@ 8
urch 8
oke 8
opti@@ 8
Woody 8
Willis 8
anyon 8
Loving 8
ades 8
raped 8
Longoria 8
ninja 8
irritates 8
thre@@ 8
Complete 8
isiana 8
ility 8
peanuts 8
coolgoose.com 8
med@@ 8
surprises 8
cherry 8
Static 8
Straight 8
lob@@ 8
Switch@@ 8
Witherspoon 8
contr@@ 8
Nashville 8
constru@@ 8
blanket 8
Timberlake 8
912@@ 8
Omar 8
degrassi 8
prostitutes 8
Smiths 8
somone 8
attraction 8
mented 8
Atreyu 8
skirts 8
earned 8
mea@@ 8
Farrell 8
Lead 8
xic 8
packed 8
aband@@ 8
flag 8
prechaun 8
5.5 8
strikes 8
fini@@ 8
lean@@ 8
sion@@ 8
survive 8
child@@ 8
torrent@@ 8
chatting 8
Grateful 8
Photograph 8
Lightning 8
kak 8
explore 8
Madden 8
Four@@ 8
'clock 8
Animals 8
fai@@ 8
cases 8
dul@@ 8
grams 8
animous 8
represent 8
Rocko 8
grave 8
Scoo@@ 8
facts 8
customer 8
separate 8
hes@@ 8
Greek 8
Horse 8
vintage 8
Blaine 8
endings 8
ascar 8
deserving 8
scripts 8
doo@@ 8
Moment 8
nineties 8
Hyde 8
describing 8
hire 8
ridin 8
stur@@ 8
DMC 8
described 8
Twista 8
conveni@@ 8
Gentlemen 8
stub@@ 8
EBay 8
Hush 8
annoy 8
Ell@@ 8
alty 8
posing 8
nurse 8
happiness 8
nette 8
Freak 8
SSSSSSSS@@ 8
McDonald 8
Kr@@ 8
goddamn 8
session 8
Reggaeton 8
Owen 8
victory 8
ands 8
headache 8
lice@@ 8
Winnie 8
discount@@ 8
yster 8
Bowwow 8
ject 8
Lennon 8
Frou 8
Bynes 8
clop 8
Shoe 8
Hun@@ 8
Midnight 8
Whenever 8
pattern 8
forming 8
Courtney 8
imate 8
reminded 8
waddy 8
waken 8
Count 8
refrigerator 8
1960 8
Donna 8
reliable 8
Diana 8
incident 8
masculine 8
Beyond 8
satis@@ 8
posit@@ 8
hairstyle 8
Sciento@@ 8
Entertainment 8
posse@@ 8
agreement 8
outstanding 8
achieved 8
Affirmative 8
beneficial 8
examine 8
dish@@ 8
presented 8
unclear 8
artificial 8
disagre@@ 8
pursue 8
irrelevant 8
utilized 8
knowledgeable 8
occupy 8
associated 8
testicles 8
referen@@ 8
enthusi@@ 8
receives 8
Australian 8
Lime@@ 8
semble 8
preferable 8
excessively 8
undesirable 8
unfaithful 8
contain@@ 8
basis 8
consideration 8
occur@@ 8
Inform 8
perceive 8
creating 8
Inu@@ 7
answerer 7
assu@@ 7
SEA@@ 7
OTHERS 7
CHEA@@ 7
coul@@ 7
DV@@ 7
tooo 7
Cd 7
Il@@ 7
Vol 7
liet 7
Craft 7
steroids 7
Como 7
dame 7
accents 7
publi@@ 7
PY 7
SCAR@@ 7
or.com 7
DRO@@ 7
anderson 7
santa 7
broo@@ 7
sexier 7
Basic 7
tts 7
HOTT@@ 7
09 7
snail 7
tempted 7
enes 7
vacilar 7
Mun@@ 7
beam 7
Webbie 7
Andre 7
multi@@ 7
Junior 7
polar 7
pis@@ 7
on.@@ 7
techno@@ 7
rich@@ 7
panda 7
stripes 7
elson 7
BLUE 7
boot@@ 7
BEAT 7
KAY 7
Matthews 7
ONES 7
heli@@ 7
sby 7
ives 7
acre 7
2gether 7
heroine 7
Glitter 7
SOOO 7
GROU@@ 7
ATT@@ 7
replac@@ 7
82 7
EM 7
p.s 7
dium 7
gasps 7
olas 7
004 7
Cali@@ 7
Howie 7
exclus@@ 7
suke 7
Mc 7
gabri@@ 7
POST 7
criminal 7
chic 7
pad@@ 7
MARI@@ 7
WEEK 7
COMP@@ 7
dgeball 7
samantha 7
Upon 7
reminiscent 7
SHUT 7
Dying 7
illis 7
sentenced 7
cir@@ 7
Isley 7
Bros 7
Sting 7
LEE 7
ANGEL@@ 7
alphabe@@ 7
STOR@@ 7
scottish 7
sink 7
Fore@@ 7
EEK 7
duction 7
EW 7
py 7
strat 7
raged 7
fender 7
telecaster 7
winked 7
.he 7
east@@ 7
imed 7
Future 7
broadcasting 7
booze 7
ounded 7
scheduled 7
NBA 7
O.C. 7
pretentious 7
Jonathan 7
Alot 7
CHARLIE 7
LANGU@@ 7
shocking 7
ABSOLU@@ 7
TELY 7
pect 7
JONES 7
minems 7
hattan 7
TRL 7
public@@ 7
kon@@ 7
78 7
LEO 7
absurd 7
Obi 7
wonders 7
jeff 7
knife 7
YANKEE 7
emailed 7
Angus 7
Change 7
Tho@@ 7
Yor@@ 7
lim@@ 7
MINE 7
OUN@@ 7
BEAUTI@@ 7
u2 7
nn 7
BOOK 7
whores 7
CELE@@ 7
TOM 7
livin 7
kee 7
casinos 7
native 7
maggie 7
cutting 7
leep 7
artistic 7
mattress 7
supposedly 7
Lilo 7
creed 7
flav 7
bels 7
stling 7
Hunger 7
quotes 7
NONE 7
merang 7
HEAD 7
PLO@@ 7
stings 7
Davis 7
lywood 7
SHI@@ 7
EEEE@@ 7
shadows 7
dunk 7
gud 7
Speed@@ 7
Pilot 7
cringe 7
IDK 7
CY 7
stor 7
tamil 7
addresses 7
recomend 7
leos@@ 7
Joker 7
Grumpy 7
brooks 7
engaging 7
torrents 7
THA 7
freaked 7
geaton 7
Wisin 7
Yandel 7
ROCK@@ 7
achi 7
SCORPI@@ 7
Bridge 7
anu 7
17th 7
capital 7
sier 7
het@@ 7
eple 7
clap 7
ceme@@ 7
mography 7
Serenity 7
Affleck 7
issor@@ 7
ik 7
stabbed 7
amuse 7
Turns 7
Kit 7
nickelback 7
mmas 7
Sen@@ 7
done@@ 7
Hoobastank 7
hrs 7
nett 7
ashlee 7
pow@@ 7
Garcia 7
Merry 7
ido@@ 7
smar@@ 7
argu@@ 7
arab@@ 7
sniff 7
DaVinci 7
ourage 7
ENED 7
Machine 7
L. 7
prostitution 7
PROBAB@@ 7
follo@@ 7
Mou@@ 7
orig@@ 7
gently 7
mee 7
oi 7
Spor@@ 7
foy 7
F.@@ 7
separated 7
LUCKY 7
Tale 7
asel@@ 7
whoo@@ 7
Ram 7
stream@@ 7
CAME 7
Pressure 7
ANGE@@ 7
Class@@ 7
TOLD 7
stab@@ 7
teer 7
ounds.com 7
tech@@ 7
Lep@@ 7
widely 7
Collin 7
Raye 7
taurus 7
ONLINE 7
EEE@@ 7
arity 7
grudge 7
roy@@ 7
maica 7
dergar@@ 7
HUH 7
Samantha 7
Court 7
composed 7
aga.com 7
goo 7
cross@@ 7
kon 7
LAME 7
borro@@ 7
did@@ 7
Satis@@ 7
hez 7
csi 7
LOU@@ 7
eeeeeeee@@ 7
bias 7
dang@@ 7
anks 7
100,000 7
reception 7
Wu@@ 7
doom 7
SMA@@ 7
gam@@ 7
cells 7
hoff 7
Jan 7
cables 7
Cure 7
EPISO@@ 7
avatars 7
PLAY@@ 7
SOUND 7
baked 7
bells 7
tyler 7
pooh 7
bodys 7
pepper 7
Flavor 7
Phe@@ 7
Gray 7
mickey 7
foremost 7
ari 7
enters 7
rly 7
ANSWER@@ 7
slipped 7
interviews 7
HOTT 7
Paisley 7
2,@@ 7
Avatar 7
HARRY 7
Brick 7
contacts 7
xed 7
outfits 7
TTE 7
expe@@ 7
6,@@ 7
christopher 7
Meg 7
winds 7
1- 7
samurai 7
novels 7
Wentworth 7
MON 7
Beckinsale 7
laguna 7
switch@@ 7
sic 7
hahahaha@@ 7
rrr 7
NOR@@ 7
CM@@ 7
Nichole 7
cubes 7
GEOR@@ 7
LOTR 7
ts.com 7
complex 7
dialogue 7
CUR@@ 7
vious 7
lu 7
Stro@@ 7
graph@@ 7
Bare@@ 7
Percy 7
mies 7
mari@@ 7
Cleveland 7
pipes 7
Cradle 7
actly 7
Yamaha 7
Eu@@ 7
kra@@ 7
ji@@ 7
rarely 7
Alternative 7
resume 7
HHH 7
snee@@ 7
sleepy 7
scored 7
boob 7
GONNA 7
Sno@@ 7
Into 7
Chronicles 7
dvayne 7
ELE@@ 7
77 7
WHA@@ 7
Tiff@@ 7
clicking 7
GING 7
lates 7
sawyer 7
onna 7
oni 7
sucker 7
thur@@ 7
rash 7
quake 7
horrid 7
delivery 7
dow 7
thingy 7
atra 7
album@@ 7
Odd 7
denies 7
dr. 7
Oak 7
turn@@ 7
ip@@ 7
yle 7
93 7
they@@ 7
STE 7
addicts 7
AIR 7
BAL@@ 7
DIRTY 7
ggin 7
bber 7
Thurman 7
oul@@ 7
blue@@ 7
www.go@@ 7
Dat@@ 7
abase 7
dar 7
DIS@@ 7
mars 7
gots 7
poin@@ 7
zn@@ 7
Angel@@ 7
downloadable 7
heed 7
myth 7
rare 7
cko 7
creep@@ 7
numb 7
Advent@@ 7
releases 7
alon@@ 7
dryer 7
houses 7
512 7
groove 7
fas@@ 7
calendar 7
offs 7
nom 7
Montgomery 7
PICK 7
ussy 7
hosted 7
Dixie 7
ute 7
--I 7
Kinda 7
Daugh@@ 7
Righ@@ 7
teous 7
kidnapped 7
BIL@@ 7
gallery 7
underwood 7
tox 7
vh1.com 7
primary 7
elers 7
technical 7
NIE 7
Bul@@ 7
corn@@ 7
EMINEM 7
HIMSELF 7
Voices 7
Sugarland 7
Kap@@ 7
oor 7
McGuire 7
tsie 7
african 7
spark@@ 7
thel 7
THROUGH 7
YAH 7
measured 7
carpet 7
guil@@ 7
TIONS 7
SCA@@ 7
boondocks 7
G7 7
cody 7
CRU@@ 7
VIS 7
color@@ 7
hip@@ 7
Tan@@ 7
mutant 7
takin 7
toby 7
turner 7
iro 7
Large 7
Ky@@ 7
deser@@ 7
membership 7
lins 7
sians 7
dosent 7
alle@@ 7
eled 7
kazaa.com 7
sphere 7
ACT 7
jeal@@ 7
equipment 7
Oliver 7
MTV2 7
bre 7
gth 7
www.imesh.com 7
make@@ 7
ORI@@ 7
cea@@ 7
DENT 7
Sus@@ 7
lesson 7
moo 7
live@@ 7
curly 7
dancin 7
gil@@ 7
idols 7
Gh@@ 7
geous 7
unrated 7
lagh@@ 7
Seconds 7
cannib@@ 7
Hogan 7
Color 7
Ark 7
Linda 7
Gods 7
Bono 7
speaker 7
suposed 7
dman 7
XL 7
bana 7
Porn 7
spel@@ 7
pineapples 7
azz 7
saxophone 7
GHTS 7
Bag 7
bark 7
strongest 7
cal 7
Oc@@ 7
rejected 7
lie@@ 7
IGHT 7
dl 7
conclusion 7
nment 7
fudge 7
havnt 7
relative 7
tenden@@ 7
bench 7
Pitch 7
pokey 7
hence 7
commer@@ 7
Incredibles 7
returning 7
TOU@@ 7
om 7
gamble 7
TEN@@ 7
downloads.com 7
rol@@ 7
MM 7
inu@@ 7
boarding 7
kick@@ 7
anim@@ 7
hue 7
load@@ 7
Que@@ 7
bic 7
spirits 7
tee@@ 7
ppard 7
Illinois 7
aken@@ 7
Rules 7
impress 7
Cad@@ 7
Wel@@ 7
satanic 7
pollution 7
nay 7
Public 7
crocodile 7
wk 7
Singers 7
chick@@ 7
fluffy 7
buns 7
probally 7
Reno 7
nese 7
JESSIC@@ 7
spectacular 7
australia 7
dessert 7
Bonnie 7
Scorpions 7
Willy 7
za@@ 7
definit@@ 7
ASKED 7
modest 7
vein 7
vom@@ 7
Groban 7
studying 7
Satur@@ 7
polka 7
fei@@ 7
ANDS 7
napster 7
import 7
YY@@ 7
zilla 7
differ@@ 7
Darling 7
Brown@@ 7
tac@@ 7
basic@@ 7
author@@ 7
wentz 7
way@@ 7
Coach 7
Farm 7
imdb 7
ing.com 7
allu@@ 7
WIT 7
raping 7
Field 7
Ig@@ 7
fruity 7
Highway 7
Schoo@@ 7
dj@@ 7
offering 7
Sagittarius 7
Crystal 7
mosquito 7
Rhapsody 7
feces 7
Tyrese 7
arnold 7
aper 7
cali 7
pickler 7
ternal 7
sooooooo 7
asp@@ 7
geeks 7
aar@@ 7
blub@@ 7
ghtly 7
die.com 7
Superstar 7
BJ 7
PRESS 7
ial 7
survivor 7
shakes 7
lux 7
judice 7
APP@@ 7
stantly 7
crooked 7
Crowe 7
res@@ 7
Fall@@ 7
grant 7
Someday 7
insulting 7
crown 7
serves 7
sorts 7
whatcha 7
mocr@@ 7
panther 7
STEM 7
WHATEVER 7
irritated 7
owe 7
facial 7
thnx 7
Smoking 7
sent@@ 7
ortal 7
alie 7
kness 7
omi 7
adress 7
rooting 7
wed@@ 7
mewi@@ 7
crete 7
PLU@@ 7
.it 7
conce@@ 7
Armageddon 7
Reject 7
electricity 7
Wants 7
gga 7
WATCH@@ 7
PA 7
abit 7
TAYLOR 7
crashed 7
remar@@ 7
corporated 7
charlie 7
lisp 7
laback 7
c.com 7
v.@@ 7
www.indi@@ 7
MMY 7
serial 7
puppets 7
MAY 7
lit 7
GAL 7
Minu@@ 7
spa@@ 7
Diamonds 7
gg 7
vt 7
satan 7
Rn@@ 7
itone 7
thews 7
Gyp@@ 7
VY 7
chir@@ 7
be.com 7
Note 7
Sul@@ 7
roman@@ 7
fish@@ 7
ouses 7
Reggae 7
Cel@@ 7
astro@@ 7
seper@@ 7
Scree@@ 7
bollyfm@@ 7
hahah 7
nero 7
ci 7
gates 7
mick 7
Dino@@ 7
garden@@ 7
trafficking 7
Sylvester 7
rescue 7
ph 7
Pig@@ 7
Source 7
matt 7
screams 7
know@@ 7
psy 7
xon 7
slam 7
APRIL 7
Miscellaneous 7
anime@@ 7
dered 7
Rest@@ 7
Scan@@ 7
squee@@ 7
consequ@@ 7
DEATH 7
Teleph@@ 7
sympathy 7
trick@@ 7
fin 7
Stairway 7
nia 7
Bravo 7
QUEEN 7
beat@@ 7
stuff@@ 7
Lets 7
tharine 7
WONDER@@ 7
Lati@@ 7
Head@@ 7
anthem 7
ational 7
Donnas 7
mummy 7
richie 7
sta.com 7
knob 7
bun 7
dently 7
wwe.com 7
Amber 7
askjeeves.com 7
d- 7
Bb 7
1,000 7
INTO 7
winter 7
opens 7
bulb 7
Whats 7
marketing 7
Soldier 7
stand@@ 7
thered 7
wallace 7
Herbie 7
Learn 7
domo 7
Buckley 7
elu@@ 7
Burning 7
insisted 7
SPO@@ 7
vampires 7
Angie 7
enna 7
degrees 7
ata 7
Bed 7
79 7
screamo 7
Mar 7
applies 7
git 7
Kelis 7
ama@@ 7
confess 7
BACK@@ 7
spike 7
Insane 7
drew 7
ired 7
tted 7
Gilmour 7
hill@@ 7
stan 7
nowadays 7
'n'@@ 7
frag@@ 7
aces 7
WATCHED 7
converter 7
SAYS 7
Pacino 7
Videos 7
cos@@ 7
bots 7
escor@@ 7
COU@@ 7
Harvey 7
pokes 7
cket 7
Strangers 7
arez 7
Ass 7
Ayla 7
orchestra 7
rot 7
ketchup 7
trou@@ 7
courting 7
Magnum 7
deras 7
lousy 7
inno@@ 7
Ready 7
OON 7
seventies 7
dgy 7
Window 7
unstable 7
Denny 7
kipedia.com 7
Tes@@ 7
EARTH 7
drome 7
therine 7
operas 7
updates 7
wis 7
Person 7
thern 7
gest@@ 7
insur@@ 7
Andrews 7
wrestle 7
lil@@ 7
impact 7
Religion 7
board.com 7
68 7
reproduce 7
dresser 7
hamster 7
smel@@ 7
Cheney 7
mming 7
yummy 7
Dominoes 7
mmmmmm 7
naive 7
gust@@ 7
chio 7
necks 7
Anne 7
Ur 7
Redneck 7
Hair@@ 7
mbles 7
Bean 7
entertained 7
tees 7
connected 7
1961 7
exercis@@ 7
Spo@@ 7
carmen 7
suitable 7
olds 7
Learning 7
lone 7
olivia 7
UPN 7
SPICE 7
Morri@@ 7
doe 7
evens 7
trailers 7
parent 7
static 7
www.ask.com 7
ckle 7
ternat@@ 7
theyll 7
oooo 7
NB 7
Miya@@ 7
dol.com 7
senior 7
Care 7
herit@@ 7
liver 7
94 7
bake 7
Megadeth 7
yline 7
gory 7
laptop 7
preorder 7
frogs 7
Said 7
asion 7
Trouble 7
whit@@ 7
customi@@ 7
custom 7
PCD 7
lighting 7
mississippi 7
Sparky 7
py@@ 7
reame 7
ano@@ 7
universe 7
Gin 7
secretly 7
lawns 7
Doll 7
omni@@ 7
arily 7
denial 7
crackers 7
bility 7
Tit@@ 7
midgets 7
Oops 7
P.O.D 7
relly 7
kisses 7
Lay 7
Heidi 7
notic@@ 7
ini 7
P.O.@@ 7
obnoxious 7
Wiggles 7
uniform 7
chickens 7
beau@@ 7
Fam@@ 7
divor@@ 7
cca 7
Arabic 7
million@@ 7
ng@@ 7
disappear 7
Cin@@ 7
justice 7
SUPPO@@ 7
chuckle 7
Lives 7
ms@@ 7
Pierce 7
Nan@@ 7
Bat 7
Genesis 7
Hentai 7
work@@ 7
percussion 7
licence 7
boxing 7
highway 7
recor@@ 7
Marc 7
Glory 7
confir@@ 7
rub 7
oz 7
Lazy 7
torious 7
Ze@@ 7
Pimp 7
bosses 7
copy@@ 7
ancing 7
rr 7
acti@@ 7
ab 7
exploring 7
name@@ 7
disgust 7
manual 7
eping 7
covers 7
zo 7
afterward 7
Placebo 7
Choice 7
Claire 7
irrit@@ 7
install@@ 7
survived 7
ranged 7
Hill@@ 7
virtu@@ 7
Vinnie 7
posuction 7
hhhh@@ 7
julia 7
roberts 7
Dakota 7
bathtub 7
authors 7
Thundercats 7
Strait 7
siblings 7
fucker 7
Todd 7
Reality 7
identified 7
rotten 7
igh@@ 7
Shadow 7
gles 7
worthwhile 7
50s 7
ggi@@ 7
ej@@ 7
dess 7
Lions 7
ece 7
Hudson 7
maru 7
anders 7
Myself 7
dressing 7
quiz 7
ison@@ 7
slet 7
horns 7
Juice 7
dorky 7
Sheep 7
Digital 7
villa@@ 7
ett 7
IDOL 7
prick 7
Torn 7
tory 7
Slide 7
Misfits 7
Kelli 7
Blondes 7
Astro@@ 7
aco@@ 7
Donkey 7
Rho@@ 7
diff 7
doub@@ 7
Mission 7
trips 7
ball@@ 7
tomato 7
dings 7
weekends 7
chamillionaire 7
Silver@@ 7
Mod@@ 7
Chilli 7
Sand@@ 7
Michigan 7
labels 7
entity 7
bills 7
Rugrats 7
Rhythm 7
bene@@ 7
enth@@ 7
Floor 7
gradu@@ 7
finger@@ 7
platinum 7
raincoat 7
ej 7
Funniest 7
OZZ@@ 7
dor 7
Nicholson 7
ariously 7
modeling 7
safely 7
differ 7
singular 7
Ti 7
ym@@ 7
Witch 7
eler 7
wned 7
Cartman 7
Griffin 7
homes 7
hahahahahahahahahaha 7
nostalgic 7
Mysterio 7
Laden 7
kle 7
agen@@ 7
leaf 7
listener 7
poster@@ 7
junkie 7
Grab 7
newspapers 7
distr@@ 7
diner 7
supp@@ 7
Rasmus 7
Pos@@ 7
But@@ 7
spor@@ 7
giggle 7
Shoes 7
angar@@ 7
theless 7
Lar@@ 7
shman 7
arch 7
vagina 7
chewing 7
pedophile 7
yon@@ 7
Danger@@ 7
stereotypical 7
updated 7
ffle 7
endless 7
vid 7
0000@@ 7
enged 7
pride 7
reputable 7
fabricated 7
circle 7
marily 7
digits 7
Eastside 7
Montana 7
estab@@ 7
comparing 7
dim 7
refle@@ 7
haled 7
Ana@@ 7
bassist 7
Mermaid 7
precisely 7
Helen 7
associate 7
impre@@ 7
favo@@ 7
High@@ 7
becoz 7
fication 7
Model 7
Lac@@ 7
skeet 7
meets 7
judging 7
Against 7
County 7
reaction 7
memorable 7
oms 7
Seven@@ 7
meow 7
appreci@@ 7
hin@@ 7
Luda 7
bridesmaid 7
pting 7
cigarettes 7
opardy 7
zens 7
thermore 7
WER 7
Aguilera 7
Contact 7
Lars 7
Ce@@ 7
Sep@@ 7
1955 7
Macy 7
29th 7
emergency 7
nun 7
neg@@ 7
surname 7
Tales 7
reak 7
Puppets 7
Cafe 7
SKA 7
planned 7
func@@ 7
accounts 7
Teletubbies 7
Hanson 7
stren@@ 7
Jensen 7
Vitamin 7
Reaper 7
represent@@ 7
investig@@ 7
pied 7
valid 7
Virginia 7
obje@@ 7
revealed 7
teasing 7
success@@ 7
erly 7
Vito 7
specify 7
Danny 7
Carrey 7
cautious 7
outdated 7
arou@@ 7
augh@@ 7
reunite 7
unexpected 7
assumption 7
wager 7
financial 7
concur 7
endea@@ 7
awaiting 7
effor@@ 7
constant 7
consuming 7
Zodiac 7
duce 7
execu@@ 7
untru@@ 7
qualities 7
solely 7
present@@ 7
belon@@ 7
enormous 7
Arab@@ 7
Www.@@ 7
requested 7
consists 7
preferences 7
improved 7
leng@@ 7
temper@@ 7
implore 7
titude 7
depic@@ 7
sequently 7
affair 7
Laughing 7
exceedingly 7
extraordinary 7
surroun@@ 7
consumed 7
characteri@@ 7
Rican 7
celebrate 7
attributes 7
acquiring 7
enamored 7
resides 7
genitalia 7
zation 7
lyrics.com. 7
loathe 7
consequences 7
Bible 7
pertaining 7
Wrest@@ 7
flatul@@ 7
frighten 7
aspects 7
particip@@ 7
indicate 7
Myspace.com 7
portray 7
tire 7
asha 6
opra@@ 6
icky 6
zil 6
suck@@ 6
ualy 6
poe@@ 6
itish 6
WHO@@ 6
wail 6
ve- 6
roseanne 6
earl 6
dless 6
Evan@@ 6
rehab 6
squarepants 6
rick@@ 6
vowels 6
sticky 6
sinatra 6
insul@@ 6
sizes 6
orida 6
soundcli@@ 6
shahrukh 6
ERIC@@ 6
Wr@@ 6
Rev@@ 6
ssey 6
www.musiciansfriend.com 6
disne@@ 6
stick@@ 6
xible 6
training 6
thony 6
thong 6
gover@@ 6
yeliner 6
phys@@ 6
GIR@@ 6
help@@ 6
haw@@ 6
stortion 6
shee@@ 6
respon@@ 6
ilers 6
unplug 6
nis 6
roa@@ 6
speciali@@ 6
sitter 6
singin 6
tuck 6
rolls 6
sus 6
sible 6
rockstar 6
vember 6
smal@@ 6
zier 6
LLY 6
thes 6
xar 6
sette 6
zipper 6
www.zi@@ 6
labe@@ 6
ela 6
suited 6
vor 6
tivo 6
REE 6
smash 6
ringer 6
trade 6
ough@@ 6
shaw 6
reall 6
t.i 6
shel@@ 6
does@@ 6
bor 6
tombstone 6
red.com 6
zart 6
zach 6
refering 6
stuf 6
need@@ 6
tonite 6
sheep.com 6
pey 6
symone 6
pric@@ 6
sadness 6
sgiving 6
quick@@ 6
99@@ 6
stom 6
succeeded 6
shane 6
HEL@@ 6
volta 6
Pur@@ 6
Secre@@ 6
pted 6
icked 6
abor@@ 6
zenegger 6
individu@@ 6
cember 6
tommy 6
lizabeth 6
sigh@@ 6
ionally 6
BLA@@ 6
dru@@ 6
ymour 6
surprisingly 6
ILE 6
warner@@ 6
gossi@@ 6
ops 6
shor@@ 6
fig@@ 6
stephen 6
mise 6
thing@@ 6
sque 6
spoiler 6
sofa 6
Spi@@ 6
spot.com 6
wr@@ 6
sum1 6
sser 6
vich 6
Rep@@ 6
signal 6
sar 6
zan 6
string@@ 6
sher@@ 6
wacky 6
answ@@ 6
serv@@ 6
sophi@@ 6
worldwide 6
ician 6
zone 6
tails 6
rik 6
xie 6
becu@@ 6
shers 6
ummmmm 6
thrift 6
hanna 6
KE@@ 6
ug@@ 6
titties 6
sali@@ 6
55 6
uhm 6
rue 6
pression 6
Squ@@ 6
soap@@ 6
recipes 6
unlock 6
sessed 6
skan@@ 6
rescued 6
scout 6
semi 6
homo@@ 6
even@@ 6
vague 6
stewart 6
warn 6
disapp@@ 6
thetics 6
xs 6
shek 6
tools 6
atly 6
tragic 6
sammy 6
etto 6
surf 6
LINE 6
rymore 6
stevie 6
wiches 6
rear 6
Lear@@ 6
sobs 6
ugu 6
iden 6
toothpaste 6
annon 6
on.com 6
trombone 6
after@@ 6
santana 6
www.retro@@ 6
adverti@@ 6
volleyball 6
www.bored.com 6
www.mp3fusion.net 6
tia 6
shotgun 6
meo 6
roads 6
wicke@@ 6
snakes 6
straw 6
workout 6
veiw 6
whacked 6
yankee 6
subtle 6
sage 6
Bol@@ 6
rr@@ 6
skate@@ 6
tless 6
NY@@ 6
suprised 6
Mid@@ 6
entr@@ 6
vibe 6
tourists 6
steven 6
illers 6
ively 6
xio 6
zeddl@@ 6
thankful 6
mist 6
begin@@ 6
erosmith 6
crit@@ 6
singly 6
soooooooo 6
ails 6
zine 6
spain 6
sville 6
Ü 6
toon 6
rubs 6
cocon@@ 6
artic@@ 6
brune@@ 6
washes 6
viewer 6
just@@ 6
username 6
www.the@@ 6
imi 6
sau@@ 6
tellin 6
encou@@ 6
coa@@ 6
trilogy 6
whining 6
sheer 6
lab@@ 6
televison 6
urge 6
LC 6
trading 6
colo@@ 6
ssus 6
well@@ 6
spiky 6
rev@@ 6
Fil@@ 6
spli@@ 6
ickey 6
vic 6
mail.com 6
weirdo 6
lipp@@ 6
signer 6
tated 6
stion 6
transit@@ 6
sample 6
tdown 6
stitu@@ 6
wman 6
wednesday 6
shaved 6
sest 6
teaching 6
volu@@ 6
guitar@@ 6
Rus@@ 6
ricorn 6
tured 6
FRI@@ 6
dra 6
residence 6
smokes 6
mention@@ 6
nib@@ 6
TRU@@ 6
shment 6
zzzz@@ 6
zzz 6
tumn 6
sul@@ 6
throws 6
stasia 6
drin@@ 6
stumbled 6
FT 6
usha 6
WAYS 6
disor@@ 6
sneeze 6
otic 6
wilson 6
ulti@@ 6
seful 6
violet 6
sassy 6
yrics.com 6
twin@@ 6
tten@@ 6
tavi@@ 6
tron 6
upstairs 6
ONCE 6
undoub@@ 6
nabe 6
lanta 6
receptionist 6
www.warez.com 6
tales 6
daugh@@ 6
tite 6
dys 6
tuary 6
elve 6
taped 6
sory 6
steen 6
dicated 6
turnips 6
avo@@ 6
diff@@ 6
uptight 6
thrown 6
uu@@ 6
Won@@ 6
JOH@@ 6
uate 6
whichever 6
tective 6
universal 6
www.coolgoose.com 6
sweating 6
waii 6
refreshing 6
tched 6
vacaine 6
uneducated 6
pregn@@ 6
Grand@@ 6
sarcasm 6
stamp 6
oppo@@ 6
steady 6
www.your@@ 6
shallow 6
salesman 6
theories 6
uel 6
ondo@@ 6
treat@@ 6
ssment 6
Bear@@ 6
weary 6
sterix 6
Nar@@ 6
rison@@ 6
wana 6
reflection 6
resources 6
UP@@ 6
rug 6
responds 6
ached 6
va.org 6
Viol@@ 6
scan 6
ener@@ 6
visible 6
ulsive 6
treasure 6
steel 6
tele@@ 6
figh@@ 6
anca 6
illion 6
sympathize 6
shook 6
uter 6
tario 6
custo@@ 6
ellent 6
vag@@ 6
compla@@ 6
sicle 6
Gru@@ 6
clear@@ 6
busters 6
ulu 6
ird 6
resting 6
sota 6
video.google.com 6
spun 6
umbrella 6
strippers 6
stards 6
suing 6
www.mu@@ 6
MUS@@ 6
seph 6
Dol@@ 6
tionally 6
spandex 6
erial 6
appy 6
eak 6
noon 6
Sim@@ 6
sures 6
tcha 6
yur 6
skittles 6
stani 6
rooms 6
broad@@ 6
Pump@@ 6
riani 6
tourist 6
shorts 6
coat 6
partic@@ 6
vseki 6
refund 6
Kin@@ 6
fab@@ 6
vert 6
sym 6
graphi@@ 6
smug 6
tripped 6
introduc@@ 6
smackdown 6
roosters 6
wse 6
tax 6
vio@@ 6
spital 6
sponsor 6
suitcase 6
Twi@@ 6
recap 6
saddest 6
stati@@ 6
corpor@@ 6
tiring 6
anan@@ 6
wland 6
staff 6
Ano@@ 6
www.santabanta.com 6
rom@@ 6
ruins 6
Wy@@ 6
sexuality 6
icide 6
trivial 6
exam@@ 6
gic 6
rebel@@ 6
liter@@ 6
rupted 6
urer 6
Dre@@ 6
Vic@@ 6
weddings 6
remarried 6
stunt 6
zona 6
rinking 6
repetit@@ 6
tatoes 6
plo@@ 6
ctors 6
llll@@ 6
bott@@ 6
sor 6
releasing 6
Pau@@ 6
steful 6
isy 6
Sag@@ 6
render 6
virginity 6
ghty 6
thbusters 6
seventy 6
referenced 6
CCCC@@ 6
worthless 6
recipe 6
secure 6
acqua@@ 6
Secon@@ 6
Vir@@ 6
stworthy 6
statements 6
tiv@@ 6
unsuccessful 6
comet 6
Regar@@ 6
unacceptable 6
similiar 6
substances 6
Kenne@@ 6
genu@@ 6
tery 6
advertise@@ 6
tained 6
utilizing 6
remained 6
thom 6
ffered 6
unbelievable 6
Tel@@ 6
researching 6
sensical 6
entually 6
urinated 6
settling 6
dentally 6
nine@@ 6
retrieve 6
substance 6
unsightly 6
Dav@@ 5
credi@@ 5
mily 5
icha@@ 5
answe@@ 5
SEX@@ 5
ESS 5
austra@@ 5
achi@@ 5
nas 5
consu@@ 5
guit@@ 5
sound@@ 5
rius 5
alth 5
3g@@ 5
eral 5
illa@@ 5
Beau@@ 5
OUL@@ 5
itney 5
atomy 5
Spir@@ 5
fessional 5
Goog@@ 5
HHHHHHHH@@ 5
EEEEEEEE@@ 5
Frank@@ 5
emb@@ 5
incredi@@ 5
Len@@ 5
hehe@@ 5
Defin@@ 5
nific@@ 5
cartney 5
ext 5
ingfield 5
esel 5
Poli@@ 5
ittor@@ 5
EARS 5
zza 5
calyp@@ 5
inte@@ 5
thank@@ 5
practic@@ 5
orm 5
sewives 5
UNE 5
asy 5
Radio@@ 5
amonds 5
CHAR@@ 5
kis@@ 5
arius 5
episo@@ 5
horosco@@ 5
blan@@ 5
HAR@@ 5
turama 5
dent@@ 5
dog@@ 5
lution 5
fru@@ 5
fore 5
ckey 5
audi@@ 5
Sex@@ 5
Oper@@ 5
sas 5
ridicul@@ 5
ddenly 5
ppi 5
TTY 5
ronicles 5
pplin 5
rison 5
cl@@ 5
KIN@@ 5
ballo@@ 5
Vis@@ 5
Poo@@ 5
tonio 5
Stran@@ 5
org 5
reamy 5
HEAR@@ 5
enny 5
onica 5
stery 5
sedly 5
identi@@ 5
conne@@ 5
ans@@ 5
raid 5
Absolu@@ 5
ssi 5
NT 5
fact@@ 5
Tea@@ 5
antic@@ 5
.co@@ 5
letssingit.com 5
helle 5
anic 5
shit@@ 5
cury 5
chize 5
apan 5
oos 5
é@@ 5
hats 5
exe@@ 5
vigne 5
psych@@ 5
hh@@ 5
Tech@@ 5
mage@@ 5
gus 5
itamin 5
ona@@ 5
sole@@ 5
OFF@@ 5
shington 5
caine 5
Smur@@ 5
MES 5
spre@@ 5
entine 5
ira 5
vered 5
respe@@ 5
depend@@ 5
esterday 5
ensive 5
cali@@ 5
roe 5
bulous 5
rrrr@@ 5
shin 5
nex@@ 5
produc@@ 5
loween 5
ption 5
intrigu@@ 5
zel 5
fessi@@ 5
minal 5
messa@@ 5
Guit@@ 5
stols 5
Skyn@@ 5
atloaf 5
vam@@ 5
Pul@@ 5
channel@@ 5
natur@@ 5
Napo@@ 5
uary 5
Maj@@ 5
err@@ 5
Tunes 5
it.com 5
BLU@@ 5
oom 5
Emer@@ 5
Scar@@ 5
ANSW@@ 5
prefer@@ 5
marri@@ 5
Pra@@ 5
liday 5
ittarius 5
fessor 5
shir@@ 5
beg@@ 5
mad@@ 5
dicul@@ 5
ema@@ 5
secon@@ 5
iter 5
arti@@ 5
geon 5
sel 5
STO@@ 5
promis@@ 5
Arti@@ 5
cade 5
fash@@ 5
yne 5
art@@ 5
ok@@ 5
db@@ 5
gall@@ 5
stable 5
ckbu@@ 5
gular 5
shoo@@ 5
Ou@@ 5
East@@ 5
ckinsale 5
Up@@ 5
Aguil@@ 5
1.com 5
ret@@ 5
aban@@ 5
atures 5
cence 5
ince 5
inny 5
recei@@ 5
sk 5
Ci@@ 5
usion@@ 5
own@@ 5
mage 5
gedies 5
¿ 5
than@@ 5
versal 5
perver@@ 5
ketball 5
finity 5
dac@@ 5
crack@@ 5
Reg@@ 5
carto@@ 5
illie 5
wich 5
xic@@ 5
sail@@ 5
ub@@ 5
Some@@ 5
Ras@@ 5
mista@@ 5
eting 5
Amer@@ 5
poten@@ 5
KKKK@@ 5
thri@@ 5
Rac@@ 5
vels 5
Net@@ 5
Cir@@ 5
Dor@@ 5
bay.com 5
Os@@ 5
venge 5
Hy@@ 5
thful 5
mical 5
attemp@@ 5
classi@@ 5
Incredi@@ 5
appropri@@ 5
ceased 5
mately 5
separ@@ 5
ims 5
apologi@@ 5
ittorrent 5
scribe 5
evid@@ 5
beha@@ 5
enge 4
ich@@ 4
coms 4
spel 4
hoho@@ 4
perfe@@ 4
blet 4
YZ 4
dge@@ 4
kh 4
respect@@ 4
lad 4
ii 4
proble@@ 4
Leg@@ 4
Ale@@ 4
cliffe 4
wain 4
isa 4
McP@@ 4
kira 4
EAN 4
OUGH 4
Explo@@ 4
ZY 4
gist 4
mme 4
yla 4
veheart 4
asn 4
WWWWWWWW@@ 4
laugh@@ 4
tera 4
beac@@ 4
faction 4
popul@@ 4
adon@@ 4
lowcard 4
vd 4
micro@@ 4
secre@@ 4
novel@@ 4
downlo@@ 4
virgin@@ 4
abama 4
DOE@@ 4
ttle 4
pires 4
dson 4
Hou@@ 4
illage 4
tober 4
tional 4
mpe 4
book@@ 4
danc@@ 4
tttt@@ 4
AWE@@ 4
tis@@ 4
extre@@ 4
cele@@ 4
boar@@ 4
wall@@ 4
Soldi@@ 4
ELLY 4
¡ 4
fant@@ 4
ython 4
SEL@@ 4
ould 4
WOO@@ 4
Carol@@ 4
eland 4
nife 4
cisco 4
IMD@@ 4
etings 4
ems 4
provi@@ 4
repe@@ 4
Hallo@@ 4
ebe 4
thon 4
aine 4
Mach@@ 4
gome 4
world@@ 4
ul 4
Smo@@ 4
dn 4
deta@@ 4
edy 4
compu@@ 4
idi@@ 4
concentr@@ 4
itchie 4
sitive 4
Law@@ 4
minator 4
NR 4
sexu@@ 4
nique 4
bored.com 4
smur@@ 4
Bau@@ 4
dacris 4
gies 4
dios 4
brow@@ 4
share.com 4
ardo 4
aribbean 4
sh.com 4
Ther@@ 4
Vide@@ 4
schedu@@ 4
zen@@ 4
90@@ 4
Willi@@ 4
distri@@ 4
taly 4
xxx 4
shville 4
state@@ 4
presents 4
000@@ 4
Andre@@ 4
Ren@@ 4
THIN@@ 4
WOM@@ 4
regre@@ 4
liott 4
progra@@ 4
odeon 4
att 4
ylor 4
Dani@@ 4
transl@@ 4
compar@@ 4
angers 4
VH@@ 4
COM 4
cil 4
nivers@@ 4
therspoon 4
sored 4
stes 4
verti@@ 4
indi 4
napo@@ 4
COUN@@ 4
DEA@@ 4
round@@ 4
dk 4
amin 4
vers@@ 4
base@@ 4
sama 4
sequ@@ 4
ord 4
reun@@ 4
peci@@ 4
yasha 4
lizabe@@ 4
stel 4
TAL 4
tally 4
stun@@ 4
vior 4
onaire 4
rek 4
stron@@ 4
thar@@ 4
hie 4
ier 4
opher 4
sation 4
into@@ 4
Cour@@ 4
eces 4
appear@@ 4
Light@@ 4
INTER@@ 4
acqu@@ 4
croo@@ 4
illz 4
Shaw@@ 4
ttery 4
zzfest 4
areena 4
lized 4
Euro@@ 4
MTV@@ 4
spoo@@ 4
athle@@ 4
9x9x@@ 4
quest@@ 4
comend 4
hound 4
expla@@ 4
reje@@ 4
Pap@@ 4
.co.@@ 4
ference 4
knowledg@@ 4
enties 4
Person@@ 4
une@@ 4
lity 4
gressive 4
Dragon@@ 4
SN@@ 4
Rhy@@ 4
aa.com 4
Plu@@ 4
tiful 4
tem@@ 4
33@@ 4
olf 4
relev@@ 4
casse@@ 4
Af@@ 4
shwarya 4
Pir@@ 4
kipe@@ 4
ouge 4
opportun@@ 4
possi@@ 4
ittles 4
eria 4
epy 4
tray 4
tten 4
rists 4
happen@@ 4
Swi@@ 4
chang@@ 4
addit@@ 4
Retur@@ 4
dents 4
lus@@ 4
pleas@@ 4
HUHU@@ 4
mbstone 4
anish 4
master.com 4
inge 4
prob@@ 4
Scorp@@ 4
Fav@@ 4
Sop@@ 4
regi@@ 4
db.com 4
ceed 4
wels 4
ouring 4
coho@@ 4
taining 4
ared 4
deter@@ 4
everal 4
Cont@@ 4
ximately 4
cee@@ 4
vidu@@ 4
Cli@@ 4
invest@@ 4
telev@@ 4
Sti@@ 4
valu@@ 4
conv@@ 4
Lyric@@ 4
​ 4
igs@@ 4
expen@@ 4
Wis@@ 4
urin@@ 3
tice 3
ssor 3
§ 3
mione 3
oran@@ 3
Rapp@@ 3
cism 3
guar@@ 3
suppo@@ 3
regon 3
eph@@ 3
ause 3
DOWN@@ 3
entucky 3
essa 3
ctu@@ 3
LF 3
askje@@ 3
ERE 3
redith 3
NET 3
baly 3
Jud@@ 3
refer@@ 3
Pho@@ 3
itler 3
esday 3
supri@@ 3
maha 3
bru@@ 3
ymond 3
SV@@ 3
free.com 3
loyd 3
nea@@ 3
Fanta@@ 3
nery 3
enjo@@ 3
p2@@ 3
LEASE 3
vana 3
tern 3
Did@@ 3
Care@@ 3
EVE 3
pecially 3
kast 3
CALL@@ 3
GLY 3
deth 3
Ok@@ 3
tney 3
ilogy 3
ficial 3
resses 3
stead 3
Addit@@ 3
DAM@@ 3
EVER@@ 3
profession@@ 3
SOM@@ 3
disappoin@@ 3
EEN 3
destin@@ 3
educ@@ 3
FE 3
porno@@ 3
holson 3
Clu@@ 3
discoun@@ 3
Night@@ 3
guaran@@ 3
sant@@ 3
oli@@ 3
entit@@ 3
survi@@ 3
sode 3
kay 3
meta@@ 3
elings 3
samp@@ 3
esy 3
nau@@ 3
gues@@ 3
mberlake 3
ination 3
Adv@@ 3
knot 3
askjeev@@ 3
soun@@ 3
ñ@@ 3
dsey 3
rigin@@ 3
demption 3
kia 3
pedo@@ 3
Thur@@ 3
bute 3
ghtest 3
leveland 3
pretti@@ 3
oung 3
ü@@ 3
ware@@ 3
kidna@@ 3
wier@@ 3
ceeded 3
lissa 3
Thr@@ 3
distur@@ 3
liot 3
endy 3
mphis 3
ö@@ 3
Bli@@ 3
aniel 3
aol@@ 3
theat@@ 3
Chil@@ 3
Inte@@ 3
POIN@@ 3
ackdown 3
dg@@ 3
ween 3
tterman 3
sterious 3
gree 3
ylan 3
eady 3
lars 3
isley 3
dney 3
diffe@@ 3
Steph@@ 3
bain 3
bruary 3
rand@@ 3
holas 3
WON@@ 3
Mas@@ 3
Samur@@ 3
Pier@@ 3
ittle 3
spea@@ 3
popu@@ 3
itate 3
asure 3
xxxx@@ 3
toil@@ 3
issa 3
Summ@@ 3
Dep@@ 3
ened 3
MOVI@@ 3
WEB@@ 3
ı 3
ults 3
SIC 3
· 3
gaby@@ 3
precha@@ 3
Rap@@ 3
scari@@ 3
wit@@ 3
mosqu@@ 3
Mont@@ 3
OT 3
concer@@ 3
dren 3
tures 3
scrip@@ 3
ester@@ 3
ccer 3
arah 3
allas 3
sterio 3
tle 3
TC 3
intri@@ 3
AMAZ@@ 3
WA 3
zar@@ 3
ridd@@ 3
estyle 3
Answ@@ 3
sr@@ 3
dele@@ 3
PT 3
anger@@ 3
rently 3
Red@@ 3
KK@@ 3
minino@@ 3
rubb@@ 3
dia.com 3
scor@@ 3
ules 3
TEST 3
commerci@@ 3
rect 3
ilo 3
ror 3
illaz 3
num 3
intel@@ 3
pron@@ 3
loading 3
bate 3
inci 3
numer@@ 3
dred 3
Never@@ 3
DDY 3
gaz@@ 3
UCK 3
cess 3
aliyah 3
Amaz@@ 3
roll@@ 3
zzzzzzzz@@ 3
refriger@@ 3
faithful 3
eah 3
ular 3
Broo@@ 3
Speci@@ 3
orly 3
ignor@@ 3
miths 3
nickel@@ 3
BIR@@ 3
cohol 3
ames 3
Wol@@ 3
McCar@@ 3
ucky 3
sually 3
zeneg@@ 3
entworth 3
chest@@ 3
bba 3
Pub@@ 3
Bab@@ 3
devel@@ 3
vali@@ 3
attribu@@ 3
categ@@ 3
ellite 3
reason@@ 3
Comple@@ 3
request@@ 3
Beck@@ 3
acious 3
scri@@ 3
repu@@ 3
Yahoo@@ 3
spite 3
Ken@@ 3
Sil@@ 3
extra@@ 3
oughly 3
advan@@ 3
YouTu@@ 3
youtu@@ 3
wei@@ 3
amon@@ 3
ercise 3
Down@@ 3
Veg@@ 3
deed 3
costu@@ 3
¢ 3
viously 3
equi@@ 3
erry 3
Rab@@ 3
Enter@@ 3
curity 3
frighten@@ 3
vate 3
sele@@ 3
ousin 3
industri@@ 3
retro@@ 3
perform@@ 3
verage 3
resul@@ 3
intoxic@@ 3
sively 3
rentice 3
Mega@@ 3
liest 3
TTLE 2
rever 2
Syl@@ 2
SI 2
dum@@ 2
HOO 2
produ@@ 2
wro@@ 2
comedi@@ 2
regu@@ 2
banan@@ 2
infat@@ 2
cis@@ 2
rd 2
forfree.com 2
aughn 2
lma@@ 2
visit@@ 2
shboard 2
libr@@ 2
.google.com 2
parano@@ 2
pathe@@ 2
WW 2
BEAU@@ 2
bbean 2
higan 2
Eag@@ 2
AGA@@ 2
sured 2
esney 2
goria 2
Contro@@ 2
pz 2
ta.com 2
Danc@@ 2
point@@ 2
fron 2
VOR@@ 2
hio 2
Leon@@ 2
嘉@@ 2
義@@ 2
人 2
因@@ 2
為@@ 2
綠@@ 2
豆@@ 2
加@@ 2
薏@@ 2
仁 2
moirs 2
hap@@ 2
ALBU@@ 2
ret 2
hero@@ 2
alph 2
mmar 2
ssic 2
lier 2
ribu@@ 2
á@@ 2
acter 2
eas 2
fect 2
THR@@ 2
mod@@ 2
evision 2
dern 2
cell@@ 2
ude 2
BELI@@ 2
won@@ 2
irway 2
juana 2
R.I.@@ 2
GON@@ 2
© 2
godd@@ 2
illiant 2
LEAR@@ 2
endin 2
Chapp@@ 2
trivi@@ 2
lesbi@@ 2
fers 2
gera 2
McGu@@ 2
fts 2
mare 2
AMERIC@@ 2
eption@@ 2
ticket@@ 2
conven@@ 2
wart 2
CEPT 2
ryp@@ 2
linton 2
chemist 2
dows 2
warya 2
urouni 2
hind 2
rece@@ 2
morrow 2
mach@@ 2
rystal 2
WITH@@ 2
santaban@@ 2
BLON@@ 2
minu@@ 2
amo@@ 2
hapsody 2
interest@@ 2
elder@@ 2
oulev@@ 2
cur 2
partment 2
Bever@@ 2
RIS 2
fif@@ 2
mbie 2
demon@@ 2
ŕ@@ 2
oph@@ 2
yahu 2
skel@@ 2
othy 2
FAVOR@@ 2
Austra@@ 2
ske@@ 2
thle@@ 2
BO 2
˝ 2
wre@@ 2
scrat@@ 2
acou@@ 2
comfor@@ 2
itely 2
instre@@ 2
calypse 2
LOAD 2
lease 2
ERY 2
exer@@ 2
IMDB@@ 2
Hei@@ 2
weir@@ 2
letssing@@ 2
znor 2
warez.com 2
unny 2
SOR@@ 2
embar@@ 2
recogni@@ 2
SSSS@@ 2
desi@@ 2
ffee 2
vei@@ 2
AO@@ 2
lance 2
subscrip@@ 2
youts 2
Canc@@ 2
gare@@ 2
ı@@ 2
ilar 2
sands 2
THOU@@ 2
icles 2
treme 2
FRO@@ 2
seki 2
ppies 2
urus 2
ean 2
REME@@ 2
Pod 2
YAN@@ 2
orang@@ 2
retar@@ 2
marion 2
2P 2
icle 2
anore@@ 2
Ene@@ 2
SCH@@ 2
Shir@@ 2
Scor@@ 2
obvi@@ 2
iction 2
stero@@ 2
hatt@@ 2
orgi@@ 2
ouldnt 2
List@@ 2
dul 2
presen@@ 2
dingfield 2
listic 2
TR 2
Top@@ 2
humor@@ 2
shri@@ 2
Graw 2
tainment 2
nson 2
kson 2
.com@@ 2
perman 2
Simp@@ 2
avat@@ 2
ped@@ 2
Virgin@@ 2
tti@@ 2
RECOR@@ 2
UGH@@ 2
orgia 2
drun@@ 2
leon 2
atman 2
musiciansfriend.com 2
stumb@@ 2
dgen@@ 2
MAY@@ 2
mbe@@ 2
LOR 2
adv@@ 2
awk@@ 2
Mex@@ 2
D4@@ 2
superi@@ 2
spy@@ 2
Mol@@ 2
mesh.com 2
Six@@ 2
thur 2
reha@@ 2
essica 2
confe@@ 2
nips 2
icial 2
zarre 2
fia 2
quir@@ 2
Wig@@ 2
remin@@ 2
Life@@ 2
Cele@@ 2
verine 2
abili@@ 2
pup@@ 2
YEA@@ 2
space.com 2
alities 2
hapso@@ 2
ask@@ 2
situ@@ 2
Lag@@ 2
Pods 2
ager 2
vors 2
Broad@@ 2
six@@ 2
Ira@@ 2
Gentle@@ 2
cancel@@ 2
dely 2
Buck@@ 2
labor@@ 2
Teen@@ 2
Nap@@ 2
Magaz@@ 2
ternatively 2
solina 2
preferen@@ 2
Cer@@ 2
ador@@ 2
sales@@ 2
timate 2
Vent@@ 2
associ@@ 2
ttish 2
eisha 2
Domin@@ 2
mors 2
dden@@ 2
finan@@ 2
ito 2
unes 2
grees 2
cred@@ 2
sionally 2
inebri@@ 2
Det@@ 2
hrukh 2
Pres@@ 2
rema@@ 2
worl@@ 2
rease 2
utiliz@@ 2
Nin@@ 2
reminis@@ 2
mption 2
credited 2
purcha@@ 2
Recor@@ 2
valent 2
excit@@ 2
respectful 2
cess@@ 2
Stra@@ 2
alogue 2
sett@@ 2
Possi@@ 2
eton 2
mediately 2
irmative 2
Adul@@ 2
particul@@ 2
ƒ@@ 1
Ü@@ 1
Ä 1
½ 1
í@@ 1
alpha@@ 1
roit 1
ddings 1
religi@@ 1
SCOR@@ 1
esty 1
hope@@ 1
eacho@@ 1
fornia 1
H.I.@@ 1
excep@@ 1
NN 1
FY@@ 1
VIDE@@ 1
lieve 1
........@@ 1
etubbies 1
teenag@@ 1
PAU@@ 1
☺ 1
yak 1
twish 1
soooo@@ 1
impl@@ 1
rean 1
diot 1
COUR@@ 1
matt@@ 1
norm@@ 1
ARIOUS 1
YOUR@@ 1
irable 1
thorne 1
Oli@@ 1
santabanta.com 1
irt 1
manda 1
gery 1
hung@@ 1
TUALLY 1
vide@@ 1
PEOP@@ 1
keback 1
FIR@@ 1
relai 1
Pis@@ 1
heal 1
gomery 1
resp@@ 1
œ@@ 1
THO@@ 1
flix 1
orge 1
Jean@@ 1
inst 1
esse 1
idio@@ 1
tween 1
sbur@@ 1
albu@@ 1
loaf 1
femin@@ 1
auth@@ 1
dol 1
à 1
saw@@ 1
WAT@@ 1
charact@@ 1
DIR@@ 1
bolly@@ 1
bumps 1
anno@@ 1
bably 1
PLE 1
hahahahahahahaha@@ 1
wt@@ 1
newspa@@ 1
pknot 1
Ds 1
NEE@@ 1
butter@@ 1
msteen 1
Fant@@ 1
sugg@@ 1
spac@@ 1
outra@@ 1
IDI@@ 1
pointment 1
refri@@ 1
BAY 1
derella 1
phile 1
bson 1
awyer 1
THA@@ 1
vil 1
Armage@@ 1
► 1
λ 1
◄ 1
kota 1
HIM@@ 1
Æ 1
س@@ 1
ا@@ 1
م@@ 1
ه 1
mainstre@@ 1
nifer 1
ott 1
vacu@@ 1
pons 1
struction 1
thout 1
imp 1
ffe 1
lull@@ 1
ither 1
fair@@ 1
ww.@@ 1
bastank 1
lag@@ 1
rible 1
mg 1
suction 1
chup 1
slow@@ 1
è@@ 1
insi@@ 1
edly 1
ingfi@@ 1
LAU@@ 1
milli@@ 1
hide@@ 1
tradit@@ 1
Camer@@ 1
rog@@ 1
OOSE 1
Gir@@ 1
digy 1
bele@@ 1
thday 1
¹ 1
apy 1
WHIC@@ 1
bath@@ 1
tau@@ 1
rese 1
shank 1
ù 1
ctac@@ 1
ansas 1
experi@@ 1
urday 1
tifully 1
onathan 1
erci@@ 1
favour@@ 1
♡ 1
ardy 1
yote 1
steph@@ 1
Opra@@ 1
adian 1
move@@ 1
neighbor@@ 1
coln 1
JOHN@@ 1
yler 1
lahoma 1
TW 1
rella 1
contest@@ 1
QUEST@@ 1
Aff@@ 1
itchen 1
á 1
amn 1
solu@@ 1
Gl@@ 1
adi@@ 1
pelin 1
previ@@ 1
diffic@@ 1
magaz@@ 1
rench 1
rica 1
gratul@@ 1
semb@@ 1
codile 1
PERFE@@ 1
Spro@@ 1
Volu@@ 1
pment 1
Chen@@ 1
professi@@ 1
renity 1
avail@@ 1
suit@@ 1
Reli@@ 1
intellig@@ 1
abe@@ 1
sympa@@ 1
adequ@@ 1
\ 1
bedr@@ 1
cellaneous 1
tagon@@ 1
licated 1
wadays 1
keting 1
ior 1
500@@ 1
derson 1
IDO@@ 1
Boulev@@ 1
Sol@@ 1
Jes@@ 1
Mr@@ 1
Flat@@ 1
member@@ 1
retri@@ 1
qua@@ 1
coolgoose@@ 1
cussion 1
sinc@@ 1
Aga@@ 1
sical 1
pheus 1
comment@@ 1
uated 1
Movi@@ 1
ittsbur@@ 1
evan@@ 1
Blon@@ 1
techn@@ 1
enjoy@@ 1
uto 1
tious 1
Sopran@@ 1
mpoo 1
apan@@ 1
lino@@ 1
ify 1
tato 1
soline 1
ceive 1
thize 1
knowle@@ 1
prostitu@@ 1
sax@@ 1
stence 1
sper@@ 1
spectac@@ 1
experien@@ 1
oughout 1
Seri@@ 1
umb@@ 1
opin@@ 1
althy 1
copes 1
stere@@ 1
fund 1
sewhere 1
conventi@@ 1
usi@@ 1
promiscu@@ 1
Plan@@ 1
tware 1
www.3g@@ 1
lusion 1
icans 1
Mir@@ 1
desmaid 1
Sour@@ 1
tempor@@ 1
mato 1
irty 1
Ret@@ 1
atar 1
issu@@ 1
Atre@@ 1
tionary 1
veh@@ 1
ason 1
dogpil@@ 1
unes.com 1
manu@@ 1
stem 1
lippines 1
ó 1
easi@@ 1
lett 1
evin 1
entle@@ 1
consist@@ 1
sche@@ 1
specif@@ 1
niversary 1
Groo@@ 1
arrog@@ 1
entertain@@ 1
